{
  "version": "1.0",
  "truncation": null,
  "padding": null,
  "added_tokens": [],
  "normalizer": null,
  "pre_tokenizer": {
    "type": "ByteLevel",
    "add_prefix_space": false,
    "trim_offsets": false,
    "use_regex": true
  },
  "post_processor": null,
  "decoder": {
    "type": "ByteLevel",
    "add_prefix_space": true,
    "trim_offsets": false,
    "use_regex": false
  },
  "model": {
    "type": "BPE",
    "dropout": null,
    "unk_token": null,
    "continuing_subword_prefix": null,
    "end_of_word_suffix": null,
    "fuse_unk": false,
    "byte_fallback": false,
    "ignore_merges": false,
    "vocab": {
      "!": 0,
      "\"": 1,
      "#": 2,
      "$": 3,
      "%": 4,
      "&": 5,
      "'": 6,
      "(": 7,
      ")": 8,
      "*": 9,
      "+": 10,
      ",": 11,
      "-": 12,
      ".": 13,
      "/": 14,
      "0": 15,
      "1": 16,
      "2": 17,
      "3": 18,
      "4": 19,
      "5": 20,
      "6": 21,
      "7": 22,
      "8": 23,
      "9": 24,
      ":": 25,
      ";": 26,
      "<": 27,
      "=": 28,
      ">": 29,
      "?": 30,
      "@": 31,
      "A": 32,
      "B": 33,
      "C": 34,
      "D": 35,
      "E": 36,
      "F": 37,
      "G": 38,
      "H": 39,
      "I": 40,
      "J": 41,
      "K": 42,
      "L": 43,
      "M": 44,
      "N": 45,
      "O": 46,
      "P": 47,
      "Q": 48,
      "R": 49,
      "S": 50,
      "T": 51,
      "U": 52,
      "V": 53,
      "W": 54,
      "X": 55,
      "Y": 56,
      "Z": 57,
      "[": 58,
      "\\": 59,
      "]": 60,
      "^": 61,
      "_": 62,
      "`": 63,
      "a": 64,
      "b": 65,
      "c": 66,
      "d": 67,
      "e": 68,
      "f": 69,
      "g": 70,
      "h": 71,
      "i": 72,
      "j": 73,
      "k": 74,
      "l": 75,
      "m": 76,
      "n": 77,
      "o": 78,
      "p": 79,
      "q": 80,
      "r": 81,
      "s": 82,
      "t": 83,
      "u": 84,
      "v": 85,
      "w": 86,
      "x": 87,
      "y": 88,
      "z": 89,
      "{": 90,
      "|": 91,
      "}": 92,
      "~": 93,
      "â": 94,
      "ĉ": 95,
      "Ċ": 96,
      "Ġ": 97,
      "ģ": 98,
      "ĸ": 99,
      "Ġi": 100,
      "Ġ;": 101,
      "Ġ(": 102,
      "Ġ)": 103,
      "Ġ=": 104,
      "Ġ,": 105,
      "nt": 106,
      "Ġ]": 107,
      "Ġ[": 108,
      "Ġn": 109,
      "Ġ1": 110,
      "Ġa": 111,
      "Ġ}": 112,
      "Ġ{": 113,
      "Ġint": 114,
      "Ġs": 115,
      "ĠĠ": 116,
      "Ġ.": 117,
      "ĠĊ": 118,
      "Ġ+": 119,
      "Ġr": 120,
      "in": 121,
      "Ġ0": 122,
      "le": 123,
      "Ġc": 124,
      "rr": 125,
      "Ġ\"": 126,
      "Ġm": 127,
      "Ġp": 128,
      "Ġ<": 129,
      "Ġ-": 130,
      "Ġf": 131,
      "or": 132,
      "et": 133,
      "at": 134,
      "Ġarr": 135,
      "Ġst": 136,
      "st": 137,
      "ur": 138,
      "um": 139,
      "de": 140,
      "Ġj": 141,
      "urn": 142,
      "ri": 143,
      "eturn": 144,
      "ĠN": 145,
      "ou": 146,
      "Ġ$": 147,
      "Ġ2": 148,
      "Ġreturn": 149,
      "ic": 150,
      "Ġle": 151,
      "Ġif": 152,
      "on": 153,
      "Ġ++": 154,
      "Ġd": 155,
      "Ġv": 156,
      "Ġ:": 157,
      "ĠS": 158,
      "Ġ==": 159,
      "ing": 160,
      "se": 161,
      "ar": 162,
      "Ġt": 163,
      "Ġma": 164,
      "Ġ*": 165,
      "Ġfor": 166,
      "âĸ": 167,
      "Ġe": 168,
      "Ġâĸ": 169,
      "Ġâĸģ": 170,
      "er": 171,
      "al": 172,
      "es": 173,
      "Ġ>": 174,
      "ĠM": 175,
      "Ġb": 176,
      "ĠĠĠ": 177,
      "em": 178,
      "ĠĠĠĠĠ": 179,
      "re": 180,
      "Ġcou": 181,
      "atic": 182,
      "Ġl": 183,
      "ct": 184,
      "ng": 185,
      "Ġk": 186,
      "id": 187,
      "Ġ'": 188,
      "Ġpri": 189,
      "ode": 190,
      "Ġx": 191,
      "Ġne": 192,
      "Ġstr": 193,
      "if": 194,
      "Ġ3": 195,
      "ig": 196,
      "ub": 197,
      "Ġcount": 198,
      "Ġstatic": 199,
      "Ġprint": 200,
      "Ġin": 201,
      "oo": 202,
      "it": 203,
      "ĠA": 204,
      "ns": 205,
      "tr": 206,
      "lse": 207,
      "Ġmax": 208,
      "Ġw": 209,
      "oid": 210,
      "ue": 211,
      "Ġnew": 212,
      "te": 213,
      "ion": 214,
      "Ġ/": 215,
      "th": 216,
      "Ġvoid": 217,
      "igh": 218,
      "us": 219,
      "Ġans": 220,
      "Ġelse": 221,
      "int": 222,
      "as": 223,
      "Ġ4": 224,
      "Ġ+=": 225,
      "ĠC": 226,
      "Ġh": 227,
      "tring": 228,
      "Ġ<<": 229,
      "ngth": 230,
      "ent": 231,
      "Ġ10": 232,
      "Ġ_": 233,
      "Ġlet": 234,
      "rite": 235,
      "Ġ%": 236,
      "Ġsum": 237,
      "nd": 238,
      "lic": 239,
      "yst": 240,
      "ystem": 241,
      "ublic": 242,
      "oot": 243,
      "Ġg": 244,
      "ay": 245,
      "Ġ5": 246,
      "ĠSystem": 247,
      "ight": 248,
      "Ġmain": 249,
      "Ġroot": 250,
      "ow": 251,
      "Ġch": 252,
      "Ġ<=": 253,
      "ĠString": 254,
      "ath": 255,
      "for": 256,
      "hi": 257,
      "Ġ!": 258,
      "ĠG": 259,
      "Ġ&": 260,
      "ft": 261,
      "Ġres": 262,
      "Ġdp": 263,
      "ze": 264,
      "ind": 265,
      "ass": 266,
      "lass": 267,
      "Ġmin": 268,
      "ize": 269,
      "using": 270,
      "me": 271,
      "Ġy": 272,
      "ĠL": 273,
      "ction": 274,
      "ang": 275,
      "ul": 276,
      "Ġleft": 277,
      "Ġright": 278,
      "ac": 279,
      "un": 280,
      "emp": 281,
      "00": 282,
      "Ġ!=": 283,
      "hile": 284,
      "Ġtemp": 285,
      "ve": 286,
      "Ġlength": 287,
      "Ġis": 288,
      "im": 289,
      "ir": 290,
      "Ġnum": 291,
      "Ġfind": 292,
      "FG": 293,
      "ĠGFG": 294,
      "ange": 295,
      "Ġclass": 296,
      "ĠMath": 297,
      "unction": 298,
      "Ġsize": 299,
      "out": 300,
      "il": 301,
      "ĠNode": 302,
      "ĠK": 303,
      "Ġar": 304,
      "ort": 305,
      "ec": 306,
      "rray": 307,
      "ist": 308,
      "dd": 309,
      "oc": 310,
      "def": 311,
      "ea": 312,
      "Ġout": 313,
      "Ġrange": 314,
      "ĠW": 315,
      "Ġ&&": 316,
      "Ġlen": 317,
      "Ġpublic": 318,
      "so": 319,
      "Ġ6": 320,
      "of": 321,
      "Ġpre": 322,
      "Ġq": 323,
      "ĠMa": 324,
      "Ġwhile": 325,
      "onso": 326,
      "onsole": 327,
      "ĠWrite": 328,
      "its": 329,
      "Ġarg": 330,
      "alse": 331,
      "os": 332,
      "urr": 333,
      "rue": 334,
      "Sum": 335,
      "Ġargs": 336,
      "Ġco": 337,
      "Ġcout": 338,
      "ount": 339,
      "ĠConsole": 340,
      "Ġvar": 341,
      "static": 342,
      "ument": 343,
      "Ġwrite": 344,
      "ocument": 345,
      "am": 346,
      "Ġcurr": 347,
      "Ġchar": 348,
      "ĠB": 349,
      "ead": 350,
      "dex": 351,
      "ut": 352,
      "xt": 353,
      "Ġusing": 354,
      "Ġdocument": 355,
      "Ġ->": 356,
      "cl": 357,
      "Ġend": 358,
      "Ġget": 359,
      "Ġnode": 360,
      "ctor": 361,
      "ble": 362,
      "ĠI": 363,
      "Node": 364,
      "Ġhead": 365,
      "ude": 366,
      "ro": 367,
      "ong": 368,
      "Ġ>=": 369,
      "Ġmid": 370,
      "clude": 371,
      "include": 372,
      "Ġfalse": 373,
      "ace": 374,
      "is": 375,
      "Ġtrue": 376,
      "Ġstring": 377,
      "public": 378,
      "Ġ7": 379,
      "Ġfl": 380,
      "ata": 381,
      "Ġnext": 382,
      "function": 383,
      "eg": 384,
      "ed": 385,
      "ber": 386,
      "an": 387,
      "ĠX": 388,
      "Ġstd": 389,
      "Ġdata": 390,
      "pace": 391,
      "ames": 392,
      "port": 393,
      "Ġnames": 394,
      "Ġ8": 395,
      "Ġnamespace": 396,
      "ĠT": 397,
      "Ġ9": 398,
      "ĠP": 399,
      "Ġ?": 400,
      "ĠR": 401,
      "ĠMain": 402,
      "ot": 403,
      "Of": 404,
      "AX": 405,
      "Ġlong": 406,
      "ine": 407,
      "std": 408,
      "en": 409,
      "bits": 410,
      "ult": 411,
      "rea": 412,
      "ĠY": 413,
      "ol": 414,
      "let": 415,
      "air": 416,
      "av": 417,
      "Ġcnt": 418,
      "Ġval": 419,
      "Ġprintl": 420,
      "++": 421,
      "ree": 422,
      "ch": 423,
      "Ġprintln": 424,
      "++.": 425,
      "stdc": 426,
      "ap": 427,
      "req": 428,
      "Ġ--": 429,
      "art": 430,
      "return": 431,
      "ength": 432,
      "ĠMAX": 433,
      "NE": 434,
      "ava": 435,
      "Ġindex": 436,
      "Ġjava": 437,
      "Ġsizeof": 438,
      "ĠArray": 439,
      "Ġmat": 440,
      "str": 441,
      "imum": 442,
      "ush": 443,
      "rt": 444,
      "ey": 445,
      "ag": 446,
      "Line": 447,
      "ax": 448,
      "ce": 449,
      "irst": 450,
      "import": 451,
      "Ġo": 452,
      "ĠWriteLine": 453,
      "ate": 454,
      "uct": 455,
      "sum": 456,
      "Num": 457,
      "Ġpush": 458,
      "ull": 459,
      "Ġpow": 460,
      "Ġboo": 461,
      "Ġu": 462,
      "Ġpos": 463,
      "Ġnull": 464,
      "Ġfunction": 465,
      "At": 466,
      "eck": 467,
      "ĠnewNode": 468,
      "Ġresult": 469,
      "ĠLength": 470,
      "Sub": 471,
      "ĠInt": 472,
      "ge": 473,
      "eger": 474,
      "Ġ__": 475,
      "Ġfreq": 476,
      "mp": 477,
      "Ġfirst": 478,
      "ix": 479,
      "Ġbrea": 480,
      "Val": 481,
      "Ġbreak": 482,
      "Ġadd": 483,
      "Ġstart": 484,
      "Ġflo": 485,
      "ame": 486,
      "Ġcheck": 487,
      "ĠF": 488,
      "iv": 489,
      "ĠInteger": 490,
      "ment": 491,
      "ven": 492,
      "Ġprime": 493,
      "ector": 494,
      "Ġprev": 495,
      "od": 496,
      "fix": 497,
      "Array": 498,
      "ouble": 499,
      "ĠD": 500,
      "Ġlow": 501,
      "el": 502,
      "qu": 503,
      "rime": 504,
      "__": 505,
      "ond": 506,
      "ack": 507,
      "ation": 508,
      "pe": 509,
      "iff": 510,
      "Ġkey": 511,
      "ost": 512,
      "Ġsec": 513,
      "Ġre": 514,
      "lement": 515,
      "Ġor": 516,
      "Count": 517,
      "ver": 518,
      "else": 519,
      "name": 520,
      "Ġsecond": 521,
      "Ġde": 522,
      "util": 523,
      "Ġmp": 524,
      "Ġdouble": 525,
      "igit": 526,
      "Ġutil": 527,
      "ĠisP": 528,
      "ash": 529,
      "Ġz": 530,
      "Ġab": 531,
      "Ġ12": 532,
      "ast": 533,
      "Ġdef": 534,
      "Max": 535,
      "rod": 536,
      "Ġhigh": 537,
      "Ġsub": 538,
      "String": 539,
      "otal": 540,
      "cd": 541,
      "Ġ1000": 542,
      "count": 543,
      "In": 544,
      "Ġarray": 545,
      "Ġand": 546,
      "while": 547,
      "cho": 548,
      "ĠV": 549,
      "Ġecho": 550,
      "ary": 551,
      "Ġpar": 552,
      "actor": 553,
      "Ġmod": 554,
      "Ġcol": 555,
      "ĠQ": 556,
      "var": 557,
      "ĠcharAt": 558,
      "ek": 559,
      "Ġbool": 560,
      "one": 561,
      "Ġtree": 562,
      "LI": 563,
      "List": 564,
      "Number": 565,
      "act": 566,
      "TR": 567,
      "ĠNo": 568,
      "val": 569,
      "Ġset": 570,
      "per": 571,
      "que": 572,
      "LINE": 573,
      "ĠSTR": 574,
      "WLINE": 575,
      "NEWLINE": 576,
      "ĠSTRNEWLINE": 577,
      "Ġrem": 578,
      "Ġfloat": 579,
      "der": 580,
      "set": 581,
      "Ġnumber": 582,
      "ĠMax": 583,
      "class": 584,
      "Ġflag": 585,
      "op": 586,
      "Ġvector": 587,
      "ible": 588,
      "Ġsort": 589,
      "Min": 590,
      "Ġ-=": 591,
      "sert": 592,
      "Pair": 593,
      "Ġendl": 594,
      "string": 595,
      "mal": 596,
      "Ġrow": 597,
      "Ġtotal": 598,
      "est": 599,
      "Ġof": 600,
      "ays": 601,
      "qrt": 602,
      "ĠList": 603,
      "til": 604,
      "Ch": 605,
      "Ġprefix": 606,
      "dj": 607,
      "Util": 608,
      "ĠYes": 609,
      "Ġpair": 610,
      "Ġit": 611,
      "arr": 612,
      "ĠCount": 613,
      "Ġinsert": 614,
      "ain": 615,
      "ĠH": 616,
      "ivis": 617,
      "ĠAdd": 618,
      "Value": 619,
      "roduct": 620,
      "Ġodd": 621,
      "ps": 622,
      "Set": 623,
      "Ġcont": 624,
      "hp": 625,
      "Ġlast": 626,
      "Ġvis": 627,
      "eks": 628,
      "Ġ100": 629,
      "lean": 630,
      "Ġphp": 631,
      "erm": 632,
      "eight": 633,
      "Ġabs": 634,
      "oint": 635,
      "ase": 636,
      "Ġse": 637,
      "Ġ//": 638,
      "quar": 639,
      "Ġcon": 640,
      "Ġ|": 641,
      "Int": 642,
      "Ġsol": 643,
      "Ġcurrent": 644,
      "lo": 645,
      "ial": 646,
      "ĠE": 647,
      "Ġ^": 648,
      "vel": 649,
      "Se": 650,
      "num": 651,
      "ect": 652,
      "Ġpower": 653,
      "ans": 654,
      "ries": 655,
      "Ġap": 656,
      "LL": 657,
      "wer": 658,
      "Ġsqrt": 659,
      "og": 660,
      "malle": 661,
      "Ġ11": 662,
      "Ġ20": 663,
      "node": 664,
      "Ġgcd": 665,
      "Ġ15": 666,
      "pend": 667,
      "rom": 668,
      "sible": 669,
      "om": 670,
      "verse": 671,
      "ĠFalse": 672,
      "Char": 673,
      "Ġappend": 674,
      "pl": 675,
      "Ġadj": 676,
      "ĠNU": 677,
      "Ġdist": 678,
      "Ġeven": 679,
      "Ġdiff": 680,
      "Ġvalue": 681,
      "Ġthi": 682,
      "ĠTrue": 683,
      "ĠMin": 684,
      "ord": 685,
      "lection": 686,
      "Ġim": 687,
      "ery": 688,
      "ĠNULL": 689,
      "max": 690,
      "igits": 691,
      "dx": 692,
      "Ġto": 693,
      "Ġcur": 694,
      "Ġboolean": 695,
      "Ġque": 696,
      "inary": 697,
      "Pairs": 698,
      "ill": 699,
      "rix": 700,
      "ound": 701,
      "array": 702,
      "uery": 703,
      "Ġ26": 704,
      "Ġanswer": 705,
      "void": 706,
      "lections": 707,
      "Code": 708,
      "Ġstruct": 709,
      "Ġptr": 710,
      "Ġord": 711,
      "he": 712,
      "Ġex": 713,
      "Ġimport": 714,
      "ib": 715,
      "Ġio": 716,
      "Ġminimum": 717,
      "ĠNone": 718,
      "quen": 719,
      "mallest": 720,
      "ove": 721,
      "Ġsolve": 722,
      "quare": 723,
      "arge": 724,
      "ollections": 725,
      "size": 726,
      "Ġsi": 727,
      "ild": 728,
      "Element": 729,
      "Ġ100000": 730,
      "eri": 731,
      "ower": 732,
      "up": 733,
      "Ġind": 734,
      "Ġsel": 735,
      "ĠCollections": 736,
      "rint": 737,
      "ll": 738,
      "uf": 739,
      "put": 740,
      "Ġgr": 741,
      "alind": 742,
      "Ġmaximum": 743,
      "Arr": 744,
      "Ġ>>": 745,
      "len": 746,
      "argest": 747,
      "ĠĠĊ": 748,
      "10": 749,
      "wap": 750,
      "Ġfactor": 751,
      "Ġcontin": 752,
      "eeks": 753,
      "ations": 754,
      "back": 755,
      "Ġdigit": 756,
      "Ġself": 757,
      "alc": 758,
      "Prime": 759,
      "Ġcontinue": 760,
      "Ġ25": 761,
      "Ġthis": 762,
      "Ġ*=": 763,
      "ĠIN": 764,
      "Odd": 765,
      "Ġfact": 766,
      "ivisor": 767,
      "To": 768,
      "ab": 769,
      "Ġhash": 770,
      "Ġ#": 771,
      "ited": 772,
      "Digit": 773,
      "Ġmath": 774,
      "Pos": 775,
      "Ġfloor": 776,
      "ero": 777,
      "ĠHash": 778,
      "Ġ13": 779,
      "res": 780,
      "Tree": 781,
      "index": 782,
      "Ġcost": 783,
      "Diff": 784,
      "aph": 785,
      "Index": 786,
      "ance": 787,
      "Ġparse": 788,
      "quence": 789,
      "Path": 790,
      "OR": 791,
      "ĠparseInt": 792,
      "eve": 793,
      "ition": 794,
      "Ġlc": 795,
      "Ġ/=": 796,
      "ĠisPrime": 797,
      "ĠcharCode": 798,
      "ĠcharCodeAt": 799,
      "ict": 800,
      "wo": 801,
      "ty": 802,
      "print": 803,
      "Ways": 804,
      "Ġprintf": 805,
      "eric": 806,
      "order": 807,
      "dge": 808,
      "Ġidx": 809,
      "Ġno": 810,
      "ulate": 811,
      "arch": 812,
      "Ġ||": 813,
      "rome": 814,
      "ref": 815,
      "ĠArrayList": 816,
      "ĠGen": 817,
      "Ġreverse": 818,
      "agon": 819,
      "ter": 820,
      "Dist": 821,
      "ad": 822,
      "ith": 823,
      "ains": 824,
      "ĠGeneric": 825,
      "Ġparent": 826,
      "Ġlevel": 827,
      "Ġfill": 828,
      "Ġvisited": 829,
      "and": 830,
      "alindrome": 831,
      "Ġlog": 832,
      "ted": 833,
      "ive": 834,
      "ont": 835,
      "Ġup": 836,
      "Ġlist": 837,
      "Ġcalc": 838,
      "ne": 839,
      "ĠVector": 840,
      "inal": 841,
      "Ġmap": 842,
      "mes": 843,
      "Ġbit": 844,
      "Ġproduct": 845,
      "ip": 846,
      "Ġquery": 847,
      "11": 848,
      "Str": 849,
      "min": 850,
      "ĠSum": 851,
      "ore": 852,
      "Ġcomp": 853,
      "fect": 854,
      "Ġ30": 855,
      "ime": 856,
      "ĠmaxSum": 857,
      "fs": 858,
      "Ġtmp": 859,
      "Numbers": 860,
      "able": 861,
      "Oper": 862,
      "ges": 863,
      "Key": 864,
      "Len": 865,
      "Ġnot": 866,
      "Ġll": 867,
      "Ġpop": 868,
      "erfect": 869,
      "Ġmx": 870,
      "Length": 871,
      "Map": 872,
      "Ġ14": 873,
      "dges": 874,
      "Bits": 875,
      "Co": 876,
      "Re": 877,
      "OD": 878,
      "Ġ16": 879,
      "ĠfindMin": 880,
      "Ġqueries": 881,
      "Factor": 882,
      "nc": 883,
      "ence": 884,
      "AL": 885,
      "Tri": 886,
      "struct": 887,
      "Digits": 888,
      "Ġgraph": 889,
      "Ġlargest": 890,
      "Ġarea": 891,
      "000": 892,
      "Cost": 893,
      "ĠNum": 894,
      "qual": 895,
      "Ġsuf": 896,
      "Square": 897,
      "boo": 898,
      "Ġdiv": 899,
      "agonal": 900,
      "ity": 901,
      "Even": 902,
      "Ġword": 903,
      "Ġop": 904,
      "Ġgeeks": 905,
      "get": 906,
      "Ġ50": 907,
      "Ġchild": 908,
      "Ġcalculate": 909,
      "Ġbin": 910,
      "IN": 911,
      "tack": 912,
      "Ġpath": 913,
      "dp": 914,
      "Ġpat": 915,
      "Ġelement": 916,
      "99": 917,
      "rid": 918,
      "Ġsmallest": 919,
      "Subarray": 920,
      "ĠNumber": 921,
      "ĠMOD": 922,
      "red": 923,
      "ĠfindMax": 924,
      "VAL": 925,
      "Ġun": 926,
      "les": 927,
      "Mat": 928,
      "ream": 929,
      "Or": 930,
      "Ġdfs": 931,
      "MAX": 932,
      "orted": 933,
      "Le": 934,
      "ĠINT": 935,
      "UE": 936,
      "ĠIn": 937,
      "ĠArrays": 938,
      "Edge": 939,
      "VALUE": 940,
      "Ġtr": 941,
      "Rec": 942,
      "ainsKey": 943,
      "Ġfib": 944,
      "ĠsumOf": 945,
      "arget": 946,
      "Ġel": 947,
      "Ġinput": 948,
      "ach": 949,
      "Ġsubset": 950,
      "tern": 951,
      "Ġswap": 952,
      "ute": 953,
      "owel": 954,
      "ces": 955,
      "Ġfinal": 956,
      "Size": 957,
      "Ġpoint": 958,
      "Ġput": 959,
      "ke": 960,
      "Ġmatrix": 961,
      "define": 962,
      "Bit": 963,
      "ivisors": 964,
      "iction": 965,
      "Ġ18": 966,
      "ex": 967,
      "ictionary": 968,
      "Ġheight": 969,
      "pos": 970,
      "Ġ10000": 971,
      "Ġtarget": 972,
      "Ġpr": 973,
      "bool": 974,
      "AR": 975,
      "ĠNO": 976,
      "Ġgrid": 977,
      "ostream": 978,
      "Ġmaxi": 979,
      "Ġbinary": 980,
      "iostream": 981,
      "cout": 982,
      "System": 983,
      "Ġmem": 984,
      "gcd": 985,
      "Ġare": 986,
      "Ġsr": 987,
      "Subse": 988,
      ");": 989,
      "end": 990,
      "Ġbase": 991,
      "Ġhas": 992,
      "ign": 993,
      "ide": 994,
      "ef": 995,
      "Ġlongest": 996,
      "Freq": 997,
      "mpty": 998,
      "Ġremove": 999,
      "HAR": 1000,
      "Ġbeg": 1001,
      "Console": 1002,
      "document": 1003,
      "Ġpref": 1004,
      "prime": 1005,
      "inct": 1006,
      "CD": 1007,
      "Ġfrom": 1008,
      "ers": 1009,
      "our": 1010,
      "Ġelif": 1011,
      "erence": 1012,
      "Operations": 1013,
      "eil": 1014,
      "ieve": 1015,
      "Ġexp": 1016,
      "Ġfactorial": 1017,
      "curr": 1018,
      "With": 1019,
      "Ġedges": 1020,
      "element": 1021,
      "Product": 1022,
      "ked": 1023,
      "pre": 1024,
      "Ġseg": 1025,
      "ater": 1026,
      "AB": 1027,
      "Valid": 1028,
      "ution": 1029,
      "Pre": 1030,
      "bal": 1031,
      "ant": 1032,
      "date": 1033,
      "Right": 1034,
      "eek": 1035,
      "Ġste": 1036,
      "ĠThe": 1037,
      "sk": 1038,
      "ossible": 1039,
      "Ġrev": 1040,
      "Ġss": 1041,
      "length": 1042,
      "bit": 1043,
      "geeks": 1044,
      "Ġ32": 1045,
      "CHAR": 1046,
      "Ġtop": 1047,
      "ĠcountPairs": 1048,
      "Search": 1049,
      "CharArray": 1050,
      "Ġsp": 1051,
      "Ġdis": 1052,
      "plit": 1053,
      "Ġ=>": 1054,
      "plet": 1055,
      "XOR": 1056,
      "Power": 1057,
      "ry": 1058,
      "ĠHashMap": 1059,
      "Ġbu": 1060,
      "Ġprimes": 1061,
      "ivisible": 1062,
      "Ġbegin": 1063,
      "uenc": 1064,
      "Ġmask": 1065,
      "ail": 1066,
      "ĠCont": 1067,
      "Two": 1068,
      "erge": 1069,
      "ess": 1070,
      "angle": 1071,
      "Term": 1072,
      "\");": 1073,
      "Ġpq": 1074,
      "her": 1075,
      "Sort": 1076,
      "Pri": 1077,
      "Ġlcm": 1078,
      "ĠHashSet": 1079,
      "Ġnums": 1080,
      "One": 1081,
      "ĠaddEdge": 1082,
      "Ġnt": 1083,
      "Ġprod": 1084,
      "map": 1085,
      "Ġstack": 1086,
      "hen": 1087,
      "ĠDictionary": 1088,
      "Ġcom": 1089,
      "sub": 1090,
      "Ġsuffix": 1091,
      "pair": 1092,
      "rat": 1093,
      "core": 1094,
      "Ġmul": 1095,
      "ise": 1096,
      "ves": 1097,
      "uency": 1098,
      "Ġsubstring": 1099,
      "12": 1100,
      "ous": 1101,
      "Ġpossible": 1102,
      "Ġall": 1103,
      "imit": 1104,
      "Ġxor": 1105,
      "ank": 1106,
      "cnt": 1107,
      "OfE": 1108,
      "Ġ17": 1109,
      "ues": 1110,
      "Ġdec": 1111,
      "ĠMap": 1112,
      "ES": 1113,
      "forgeeks": 1114,
      "Order": 1115,
      "Ġnth": 1116,
      "ci": 1117,
      "Ġsieve": 1118,
      "Ġcan": 1119,
      "vert": 1120,
      "lose": 1121,
      "irc": 1122,
      "0000": 1123,
      "no": 1124,
      "Ġmult": 1125,
      "Ġitem": 1126,
      "Con": 1127,
      "sing": 1128,
      "lobal": 1129,
      "Matrix": 1130,
      "Ste": 1131,
      "ueue": 1132,
      "Ġsh": 1133,
      "Ġsy": 1134,
      "ard": 1135,
      "ĠSub": 1136,
      "ĠSort": 1137,
      "ices": 1138,
      "ux": 1139,
      "ĠcountSub": 1140,
      "reate": 1141,
      "Ġweight": 1142,
      "Ġceil": 1143,
      "Elements": 1144,
      "io": 1145,
      "long": 1146,
      "osthen": 1147,
      "Ġways": 1148,
      "ratosthen": 1149,
      "Factors": 1150,
      "Ġupdate": 1151,
      "here": 1152,
      "ĠnumberOf": 1153,
      "Ġ21": 1154,
      "Ġglobal": 1155,
      "Ġtable": 1156,
      "vector": 1157,
      "bs": 1158,
      "ratosthenes": 1159,
      "Ġgeeksforgeeks": 1160,
      "ront": 1161,
      "ĠPow": 1162,
      "Ġzero": 1163,
      "ĠfindL": 1164,
      "ique": 1165,
      "Cr": 1166,
      "Ġone": 1167,
      "eff": 1168,
      "OfEratosthenes": 1169,
      "ener": 1170,
      "ĠTo": 1171,
      "char": 1172,
      "Ġth": 1173,
      "Vowel": 1174,
      "Ġ40": 1175,
      "ĠZ": 1176,
      "ĠfindSum": 1177,
      "ones": 1178,
      "ST": 1179,
      "Ġthe": 1180,
      "ĠprintArray": 1181,
      "ĠYES": 1182,
      "ermut": 1183,
      "ator": 1184,
      "Ġconstruct": 1185,
      "Ġ23": 1186,
      "Ġstrlen": 1187,
      "imal": 1188,
      "Ġaux": 1189,
      "ĠStack": 1190,
      "ĠTree": 1191,
      "ĠCh": 1192,
      "ĠMaximum": 1193,
      "odd": 1194,
      "xor": 1195,
      "Ġneg": 1196,
      "loc": 1197,
      "ĠO": 1198,
      "Ġfound": 1199,
      "Ġtri": 1200,
      "St": 1201,
      "ĠPair": 1202,
      "ube": 1203,
      "Triplet": 1204,
      "Equal": 1205,
      "peat": 1206,
      "ht": 1207,
      "oin": 1208,
      "ell": 1209,
      "ext": 1210,
      "Ġbuild": 1211,
      "reater": 1212,
      "Un": 1213,
      "Ġden": 1214,
      "rig": 1215,
      "ngle": 1216,
      "Xor": 1217,
      "SetBits": 1218,
      "enerate": 1219,
      "Ġcase": 1220,
      "eap": 1221,
      "ĠINF": 1222,
      "Palindrome": 1223,
      "Ġsplit": 1224,
      "Ġsrc": 1225,
      "OL": 1226,
      "from": 1227,
      "low": 1228,
      "iven": 1229,
      "ĠContainsKey": 1230,
      "tree": 1231,
      "ean": 1232,
      "Divisors": 1233,
      "ari": 1234,
      "omp": 1235,
      "Range": 1236,
      "issing": 1237,
      "eter": 1238,
      "mon": 1239,
      "Distance": 1240,
      "left": 1241,
      "Ġsys": 1242,
      "uto": 1243,
      "each": 1244,
      "Rem": 1245,
      "Area": 1246,
      "All": 1247,
      "ĠPoint": 1248,
      "oves": 1249,
      "ĠSieve": 1250,
      "enter": 1251,
      "Ġ24": 1252,
      "Ġcounter": 1253,
      "acter": 1254,
      "Ele": 1255,
      "even": 1256,
      "ian": 1257,
      "Ġfront": 1258,
      "Ġ60": 1259,
      "Ġbo": 1260,
      "uc": 1261,
      "Smallest": 1262,
      "double": 1263,
      "Ġ100000000": 1264,
      "ly": 1265,
      "factor": 1266,
      "ook": 1267,
      "End": 1268,
      "cost": 1269,
      "Ġmerge": 1270,
      "ĠmaxLen": 1271,
      "ĠFind": 1272,
      "lock": 1273,
      "quares": 1274,
      "ĠMinimum": 1275,
      "For": 1276,
      "Point": 1277,
      "Ġat": 1278,
      "Ġpoints": 1279,
      "mat": 1280,
      "ĠcountWays": 1281,
      "Steps": 1282,
      "ĠisPossible": 1283,
      "Ġgenerate": 1284,
      "Ġmini": 1285,
      "ĠLin": 1286,
      "ĠisS": 1287,
      "Ġmar": 1288,
      "Subset": 1289,
      "Ġlower": 1290,
      "pth": 1291,
      "eros": 1292,
      "ĠisValid": 1293,
      "ĠAbs": 1294,
      "Ġty": 1295,
      "pt": 1296,
      "Ġlang": 1297,
      "45": 1298,
      "igned": 1299,
      "Ġ^=": 1300,
      "Possible": 1301,
      "Ġauto": 1302,
      "Col": 1303,
      "Ġdi": 1304,
      "Ġ19": 1305,
      "ĠDP": 1306,
      "Swap": 1307,
      "Time": 1308,
      "freq": 1309,
      "On": 1310,
      "omial": 1311,
      "Ġinc": 1312,
      "Idx": 1313,
      "af": 1314,
      "Ġempty": 1315,
      "ĠgetMax": 1316,
      "Ġ48": 1317,
      "far": 1318,
      "32": 1319,
      "dered": 1320,
      "Ġ22": 1321,
      "De": 1322,
      "temp": 1323,
      "Divisible": 1324,
      "lete": 1325,
      "ĠLC": 1326,
      "mall": 1327,
      "Lea": 1328,
      "value": 1329,
      "By": 1330,
      "Ġsearch": 1331,
      "Ġinorder": 1332,
      "Permut": 1333,
      "ĠprintList": 1334,
      "Sequence": 1335,
      "Subsequence": 1336,
      "sort": 1337,
      "Ġuns": 1338,
      "Ġside": 1339,
      "ĠcountOf": 1340,
      "Binary": 1341,
      "acci": 1342,
      "Strings": 1343,
      "Primes": 1344,
      "bin": 1345,
      "ious": 1346,
      "Ġal": 1347,
      "rem": 1348,
      "Ġ31": 1349,
      "Level": 1350,
      "Ġsorted": 1351,
      "Ġlo": 1352,
      "Comp": 1353,
      "ĠNot": 1354,
      "Ġtwo": 1355,
      "Ġbrr": 1356,
      "Paths": 1357,
      "Arrays": 1358,
      "Ġrec": 1359,
      "Ġdigits": 1360,
      "onacci": 1361,
      "arry": 1362,
      "Ġum": 1363,
      "ntry": 1364,
      "ius": 1365,
      "Row": 1366,
      "ĠBinary": 1367,
      "ĠisPerfect": 1368,
      "sent": 1369,
      "Zero": 1370,
      "Ġabc": 1371,
      "umn": 1372,
      "Ġlis": 1373,
      "Ġsq": 1374,
      "ending": 1375,
      "Ġconst": 1376,
      "ĠnoOf": 1377,
      "ired": 1378,
      "Ġoutput": 1379,
      "Ġ1000000007": 1380,
      "Ġrank": 1381,
      "number": 1382,
      "ift": 1383,
      "Ġmake": 1384,
      "queue": 1385,
      "ocess": 1386,
      "fter": 1387,
      "alan": 1388,
      "Ġhi": 1389,
      "Ġms": 1390,
      "ner": 1391,
      "ofit": 1392,
      "And": 1393,
      "Ġ45": 1394,
      "ĠSieveOfEratosthenes": 1395,
      "zero": 1396,
      "Ġrad": 1397,
      "Ġqueue": 1398,
      "Fib": 1399,
      "rd": 1400,
      "Left": 1401,
      "Difference": 1402,
      "ĠisPower": 1403,
      "Ġcolor": 1404,
      "ĠSqrt": 1405,
      "Ġpi": 1406,
      "Ġconvert": 1407,
      "Ġlimit": 1408,
      "First": 1409,
      "Ġdest": 1410,
      "Ġdistance": 1411,
      "digit": 1412,
      "Ġele": 1413,
      "ĠminOperations": 1414,
      "Cnt": 1415,
      "right": 1416,
      "Ġcreate": 1417,
      "Ġones": 1418,
      "Ġ|=": 1419,
      "Perfect": 1420,
      "14": 1421,
      "ĠisPalindrome": 1422,
      "Ġitr": 1423,
      "ĠMAXN": 1424,
      "dist": 1425,
      "init": 1426,
      "Ġspf": 1427,
      "IZ": 1428,
      "ĠnCr": 1429,
      "Ġsteps": 1430,
      "find": 1431,
      "Nodes": 1432,
      "Ġdel": 1433,
      "Ġpairs": 1434,
      "ative": 1435,
      "Ġvec": 1436,
      "Ġlcs": 1437,
      "Ġinter": 1438,
      "Ex": 1439,
      "Ġclose": 1440,
      "ĠMIN": 1441,
      "Ġmulti": 1442,
      "olution": 1443,
      "IZE": 1444,
      "Ġprevious": 1445,
      "Distinct": 1446,
      "Word": 1447,
      "ld": 1448,
      "ies": 1449,
      "dec": 1450,
      "Score": 1451,
      "Ġtest": 1452,
      "Ġpart": 1453,
      "term": 1454,
      "ĠcontainsKey": 1455,
      "Ġsubstr": 1456,
      "aa": 1457,
      "Ġdig": 1458,
      "data": 1459,
      "edian": 1460,
      "ph": 1461,
      "Dec": 1462,
      "Ġcarry": 1463,
      "Rot": 1464,
      "ĠfindM": 1465,
      "raph": 1466,
      "Ġsquare": 1467,
      "Ġseq": 1468,
      "Ġas": 1469,
      "ordered": 1470,
      "Ġver": 1471,
      "Th": 1472,
      "Ġlook": 1473,
      "MB": 1474,
      "SY": 1475,
      "Ġtime": 1476,
      "age": 1477,
      "row": 1478,
      "Non": 1479,
      "Ġfrequency": 1480,
      "No": 1481,
      "oup": 1482,
      "diff": 1483,
      "root": 1484,
      "Last": 1485,
      "Ġunsigned": 1486,
      "ĠTAB": 1487,
      "MBOL": 1488,
      "SYMBOL": 1489,
      "ĠTABSYMBOL": 1490,
      "Ġstate": 1491,
      "DP": 1492,
      "ram": 1493,
      "unc": 1494,
      "Ġob": 1495,
      "Ġposition": 1496,
      "ĠLinked": 1497,
      "Ġupper": 1498,
      "Al": 1499,
      "ĠArr": 1500,
      "Ġvect": 1501,
      "ĠbinarySearch": 1502,
      "to": 1503,
      "Ġmemset": 1504,
      "Ġwt": 1505,
      "Ġpro": 1506,
      "Ġ%=": 1507,
      "ĠTri": 1508,
      "ĠBinaryTree": 1509,
      "From": 1510,
      "Ġdivisor": 1511,
      "Com": 1512,
      "100": 1513,
      "ĠGet": 1514,
      "Ġ256": 1515,
      "Ġvalues": 1516,
      "Ġbinomial": 1517,
      "Ġoc": 1518,
      "Ġret": 1519,
      "Ġmemo": 1520,
      "Ġinv": 1521,
      "ĠisVowel": 1522,
      "ĠTreeNode": 1523,
      "Ones": 1524,
      "mod": 1525,
      "con": 1526,
      "ĠtoCharArray": 1527,
      "Ġmaxsize": 1528,
      "Stack": 1529,
      "Root": 1530,
      "Ġforeach": 1531,
      "Ġprice": 1532,
      "Ġmaze": 1533,
      "Ġ36": 1534,
      "Coeff": 1535,
      "cur": 1536,
      "Ġtype": 1537,
      "Pr": 1538,
      "ks": 1539,
      "ĠChar": 1540,
      "Ġcirc": 1541,
      "are": 1542,
      "ĠgetMin": 1543,
      "ĠfindCount": 1544,
      "Nth": 1545,
      "py": 1546,
      "Ġmy": 1547,
      "ular": 1548,
      "ility": 1549,
      "sion": 1550,
      "own": 1551,
      "Ġthird": 1552,
      "ueries": 1553,
      "Ġcompute": 1554,
      "ĠQuery": 1555,
      "place": 1556,
      "GCD": 1557,
      "Ġsmall": 1558,
      "ĠcountS": 1559,
      "stdio": 1560,
      "Ġremain": 1561,
      "ongest": 1562,
      "Ġtxt": 1563,
      "ĠMaxValue": 1564,
      "Ġ>>=": 1565,
      "Ġcolumn": 1566,
      "new": 1567,
      "Case": 1568,
      "Ġsz": 1569,
      "ĠToCharArray": 1570,
      "ĠSubstring": 1571,
      "Ġboard": 1572,
      "alf": 1573,
      "Ġqu": 1574,
      "loat": 1575,
      "Ġphi": 1576,
      "ĠRe": 1577,
      "Ġpattern": 1578,
      "Ġmn": 1579,
      "Triplets": 1580,
      "Ġjoin": 1581,
      "ĠcountSetBits": 1582,
      "bab": 1583,
      "ĠgetSum": 1584,
      "earr": 1585,
      "Ġpeek": 1586,
      "Ġ97": 1587,
      "Ġnumbers": 1588,
      "arity": 1589,
      "sec": 1590,
      "Seq": 1591,
      "Ġbits": 1592,
      "Series": 1593,
      "Ġangle": 1594,
      "ite": 1595,
      "ĠGeeks": 1596,
      "Div": 1597,
      "ply": 1598,
      "Substring": 1599,
      "ced": 1600,
      "Hash": 1601,
      "ĠValue": 1602,
      "quences": 1603,
      "ĠStr": 1604,
      "ĠQueue": 1605,
      "Ind": 1606,
      "comp": 1607,
      "Ġ100005": 1608,
      "ele": 1609,
      "digits": 1610,
      "wise": 1611,
      "Ġkth": 1612,
      "maller": 1613,
      "Ġ**": 1614,
      "product": 1615,
      "OfTwo": 1616,
      "Nums": 1617,
      "alindrom": 1618,
      "MIN": 1619,
      "Prefix": 1620,
      "andom": 1621,
      "ĠminCost": 1622,
      "Ġstore": 1623,
      "peating": 1624,
      "ĠtoString": 1625,
      "Ġlookup": 1626,
      "Ġgap": 1627,
      "attern": 1628,
      "anges": 1629,
      "Di": 1630,
      "fill": 1631,
      "float": 1632,
      "101": 1633,
      "pr": 1634,
      "ates": 1635,
      "ĠSet": 1636,
      "ĠGCD": 1637,
      "Ġdup": 1638,
      "ĠRem": 1639,
      "olum": 1640,
      "Ġdelete": 1641,
      "Ġinf": 1642,
      "ĠGf": 1643,
      "olume": 1644,
      "ated": 1645,
      "Ma": 1646,
      "Ġstep": 1647,
      "Mod": 1648,
      "hild": 1649,
      "valid": 1650,
      "ĠbinomialCoeff": 1651,
      "dle": 1652,
      "ient": 1653,
      "Ġshift": 1654,
      "Ġoper": 1655,
      "area": 1656,
      "Ġ1000000": 1657,
      "Ans": 1658,
      "IT": 1659,
      "col": 1660,
      "Ġfac": 1661,
      "ĠgetCount": 1662,
      "Ġextr": 1663,
      "start": 1664,
      "sed": 1665,
      "ĠminSum": 1666,
      "quired": 1667,
      "Ġsm": 1668,
      "yc": 1669,
      "Ġid": 1670,
      "ĠLog": 1671,
      "ĠCharacter": 1672,
      "Ġround": 1673,
      "esult": 1674,
      "Inorder": 1675,
      "result": 1676,
      "Operation": 1677,
      "Ġfactors": 1678,
      "pairs": 1679,
      "vg": 1680,
      "Ġentry": 1681,
      "Ġblock": 1682,
      "Pal": 1683,
      "ra": 1684,
      "reas": 1685,
      "Pow": 1686,
      "play": 1687,
      "Ġnewnode": 1688,
      "Ġdepth": 1689,
      "Empty": 1690,
      "Ġopen": 1691,
      "ify": 1692,
      "Leaf": 1693,
      "test": 1694,
      "earrange": 1695,
      "list": 1696,
      "Ġgiven": 1697,
      "Ġ34": 1698,
      "itial": 1699,
      "acent": 1700,
      "ĠĠĠĠ": 1701,
      "ĠXOR": 1702,
      "ĠisPerfectSquare": 1703,
      "erse": 1704,
      "Permutation": 1705,
      "form": 1706,
      "Ġ90": 1707,
      "ins": 1708,
      "Ġ35": 1709,
      "entered": 1710,
      "ĠGfG": 1711,
      "uil": 1712,
      "Ġtail": 1713,
      "Height": 1714,
      "Part": 1715,
      "fa": 1716,
      "son": 1717,
      "Ġterm": 1718,
      "Cube": 1719,
      "Ġdivisors": 1720,
      "Oc": 1721,
      "ource": 1722,
      "Ġ28": 1723,
      "ĠnthTerm": 1724,
      "Queue": 1725,
      "Ġmean": 1726,
      "imize": 1727,
      "mid": 1728,
      "Ġequal": 1729,
      "Swaps": 1730,
      "ĠKey": 1731,
      "head": 1732,
      "Ġ180": 1733,
      "vis": 1734,
      "Ġsegment": 1735,
      "Ġbest": 1736,
      "avers": 1737,
      "Ġtight": 1738,
      "Ġtot": 1739,
      "ĠmaxVal": 1740,
      "bability": 1741,
      "ose": 1742,
      "47": 1743,
      "Ġunique": 1744,
      "ca": 1745,
      "ds": 1746,
      "9999": 1747,
      "uffix": 1748,
      "Ġdivide": 1749,
      "Ġ27": 1750,
      "Ġ===": 1751,
      "Ġline": 1752,
      "point": 1753,
      "aversal": 1754,
      "Ġsumm": 1755,
      "Ġmultiply": 1756,
      "ical": 1757,
      "level": 1758,
      "15": 1759,
      "ĠAB": 1760,
      "ions": 1761,
      "elif": 1762,
      "Ġsubsets": 1763,
      "Ġsame": 1764,
      "Kth": 1765,
      "Ġdo": 1766,
      "Total": 1767,
      "ortest": 1768,
      "ultip": 1769,
      "ĠcountNumbers": 1770,
      "oolean": 1771,
      "Position": 1772,
      "Query": 1773,
      "ault": 1774,
      "ority": 1775,
      "Ġchr": 1776,
      "Ġgroup": 1777,
      "decagonal": 1778,
      "Ġfre": 1779,
      "Ġmiddle": 1780,
      "ĠPeek": 1781,
      "Neg": 1782,
      "oss": 1783,
      "ptr": 1784,
      "Op": 1785,
      "ped": 1786,
      "SIZE": 1787,
      "ĠOdd": 1788,
      "ĠU": 1789,
      "SubArray": 1790,
      "Greater": 1791,
      "ded": 1792,
      "Pattern": 1793,
      "uff": 1794,
      "ND": 1795,
      "bound": 1796,
      "Ġmove": 1797,
      "fl": 1798,
      "Ġtl": 1799,
      "lope": 1800,
      "Squares": 1801,
      "Ġtw": 1802,
      "Unique": 1803,
      "ĠRemove": 1804,
      "ITree": 1805,
      "onent": 1806,
      "ied": 1807,
      "Sorted": 1808,
      "inner": 1809,
      "Ġfunc": 1810,
      "Ġinitial": 1811,
      "ĠEn": 1812,
      "ren": 1813,
      "Ġreplace": 1814,
      "Child": 1815,
      "Ġwith": 1816,
      "Ġradius": 1817,
      "Ġpost": 1818,
      "itive": 1819,
      "ask": 1820,
      "Ġac": 1821,
      "ĠLI": 1822,
      "ĠJ": 1823,
      "ameter": 1824,
      "48": 1825,
      "Ġper": 1826,
      "ood": 1827,
      "acters": 1828,
      "sequence": 1829,
      "ĠTotal": 1830,
      "Ġunordered": 1831,
      "Fibonacci": 1832,
      "Ġsuff": 1833,
      "Ġ29": 1834,
      "most": 1835,
      "Ġdeg": 1836,
      "ob": 1837,
      "ĠminVal": 1838,
      "ĠisDivisible": 1839,
      "vals": 1840,
      "ĠLinkedList": 1841,
      "Ġback": 1842,
      "ĠIs": 1843,
      "last": 1844,
      "Ġdistinct": 1845,
      "34": 1846,
      "ĠBoolean": 1847,
      "ĠEnqueue": 1848,
      "Ġheap": 1849,
      "ĠmaxDiff": 1850,
      "cr": 1851,
      "reasing": 1852,
      "Ġqs": 1853,
      "Result": 1854,
      "ĠPre": 1855,
      "ĠfindMinimum": 1856,
      "ĠGetLength": 1857,
      "ĠMat": 1858,
      "Ġtrans": 1859,
      "prefix": 1860,
      "Ġhex": 1861,
      "gle": 1862,
      "Ġpol": 1863,
      "alanced": 1864,
      "Tr": 1865,
      "ĠArea": 1866,
      "meter": 1867,
      "Ġ\\": 1868,
      "Ġ101": 1869,
      "Ġqe": 1870,
      "ĠmaxLength": 1871,
      "prev": 1872,
      "verage": 1873,
      "ixed": 1874,
      "Ġlps": 1875,
      "Ġgreater": 1876,
      "oggle": 1877,
      "Ġmark": 1878,
      "ĠMinValue": 1879,
      "ĠStringB": 1880,
      "Ġcompare": 1881,
      "Recur": 1882,
      "Ġcircle": 1883,
      "Ġcommon": 1884,
      "ists": 1885,
      "Ġnodes": 1886,
      "ĠnextRight": 1887,
      "idth": 1888,
      "Ġorig": 1889,
      "Ġ//=": 1890,
      "ĠEven": 1891,
      "Ġdict": 1892,
      "old": 1893,
      "Ġrequired": 1894,
      "stru": 1895,
      "FS": 1896,
      "Next": 1897,
      "Sp": 1898,
      "ĠmaxN": 1899,
      "Ġwords": 1900,
      "An": 1901,
      "Ġsequence": 1902,
      "ways": 1903,
      "Ġ80": 1904,
      "Integer": 1905,
      "Ġrearrange": 1906,
      "erator": 1907,
      "angles": 1908,
      "sonant": 1909,
      "Ġreq": 1910,
      "Same": 1911,
      "Ġperfect": 1912,
      "Ġelements": 1913,
      "Ġ33": 1914,
      "Queries": 1915,
      "uilder": 1916,
      "ĠcountDigits": 1917,
      "Ġmi": 1918,
      "ump": 1919,
      "Ġhm": 1920,
      "compute": 1921,
      "65": 1922,
      "Ġstk": 1923,
      "ĠisEmpty": 1924,
      "ĠElement": 1925,
      "ĠfindNumber": 1926,
      "omin": 1927,
      "Words": 1928,
      "iz": 1929,
      "ste": 1930,
      "Ġcopy": 1931,
      "Ġflip": 1932,
      "Ġbe": 1933,
      "ĠgetNode": 1934,
      "ĠPrime": 1935,
      "Ġdisplay": 1936,
      "ĠcountTriplets": 1937,
      "Ġprofit": 1938,
      "structor": 1939,
      "ivot": 1940,
      "ĠminD": 1941,
      "Ġ70": 1942,
      "rib": 1943,
      "ings": 1944,
      "ĠPush": 1945,
      "Ġ100001": 1946,
      "Ġcat": 1947,
      "Repeating": 1948,
      "Solution": 1949,
      "CHARS": 1950,
      "Adj": 1951,
      "Ġ56": 1952,
      "ĠPossible": 1953,
      "all": 1954,
      "Ġenc": 1955,
      "time": 1956,
      "ĠDe": 1957,
      "The": 1958,
      "Ġ200": 1959,
      "Bound": 1960,
      "Moves": 1961,
      "Start": 1962,
      "pri": 1963,
      "umps": 1964,
      "Vector": 1965,
      "tem": 1966,
      "tex": 1967,
      "rees": 1968,
      "Ġlca": 1969,
      "Ġ64": 1970,
      "osite": 1971,
      "ences": 1972,
      "Close": 1973,
      "Ġcoeff": 1974,
      "Ġconstructor": 1975,
      "ĠStringBuilder": 1976,
      "ĠfindNth": 1977,
      "ĠprefixSum": 1978,
      "Ġan": 1979,
      "Ġopt": 1980,
      "Ġla": 1981,
      "elper": 1982,
      "Up": 1983,
      "ĠprintInorder": 1984,
      "Ġvp": 1985,
      "Ġkeys": 1986,
      "ement": 1987,
      "Ġpresent": 1988,
      "23": 1989,
      "Ġct": 1990,
      "ĠprintArr": 1991,
      "ear": 1992,
      "und": 1993,
      "Ġclosest": 1994,
      "Consec": 1995,
      "Multip": 1996,
      "Ġpt": 1997,
      "ĠvalueOf": 1998,
      "Dup": 1999,
      "Ġ1000000000": 2000,
      "Ġdy": 2001,
      "Zeros": 2002,
      "ĠSt": 2003,
      "Ġmatch": 2004,
      "ak": 2005,
      "ule": 2006,
      "otient": 2007,
      "utive": 2008,
      "ĠFirst": 2009,
      "Inc": 2010,
      "Ġcand": 2011,
      "Ġscore": 2012,
      "Ġorder": 2013,
      "Ġpl": 2014,
      "Ġvert": 2015,
      "Ġavg": 2016,
      "ee": 2017,
      "ified": 2018,
      "Fact": 2019,
      "lear": 2020,
      "AND": 2021,
      "Ġcell": 2022,
      "Ġmaxm": 2023,
      "ecial": 2024,
      "Indices": 2025,
      "uple": 2026,
      "Ġlds": 2027,
      "cted": 2028,
      "ĠgetValue": 2029,
      "Ġpartition": 2030,
      "Ġcc": 2031,
      "ĠPrint": 2032,
      "20": 2033,
      "EE": 2034,
      "Prod": 2035,
      "erimeter": 2036,
      "Pro": 2037,
      "Ġcube": 2038,
      "ĠLe": 2039,
      "position": 2040,
      "path": 2041,
      "Ġcal": 2042,
      "ĠLIS": 2043,
      "AP": 2044,
      "Ġ65": 2045,
      "gg": 2046,
      "ĠmaximumSum": 2047,
      "OF": 2048,
      "ips": 2049,
      "vate": 2050,
      "ĠBITree": 2051,
      "steps": 2052,
      "edge": 2053,
      "Ġsb": 2054,
      "Ġfast": 2055,
      "Rect": 2056,
      "Ġsign": 2057,
      "Ġmaxlen": 2058,
      "ĠEdges": 2059,
      "bb": 2060,
      "Ġcap": 2061,
      "ingle": 2062,
      "Ġedge": 2063,
      "Ġvowel": 2064,
      "Ġcr": 2065,
      "we": 2066,
      "Ġcontains": 2067,
      "loor": 2068,
      "36": 2069,
      "eta": 2070,
      "ĠMod": 2071,
      "Ġzeros": 2072,
      "alculate": 2073,
      "LC": 2074,
      "two": 2075,
      "ĠcountP": 2076,
      "agram": 2077,
      "Ġrt": 2078,
      "imes": 2079,
      "INT": 2080,
      "Geeks": 2081,
      "ĠInvalid": 2082,
      "Ġshortest": 2083,
      "bination": 2084,
      "process": 2085,
      "ĠisB": 2086,
      "check": 2087,
      "Ġfibo": 2088,
      "Points": 2089,
      "Fl": 2090,
      "Gr": 2091,
      "zy": 2092,
      "ĠfindSmallest": 2093,
      "SetBit": 2094,
      "Ġns": 2095,
      "eNode": 2096,
      "Ġdifference": 2097,
      "rror": 2098,
      "only": 2099,
      "Ġoct": 2100,
      "Ġrandom": 2101,
      "Ġtoggle": 2102,
      "ĠMatrix": 2103,
      "Ġmoves": 2104,
      "ubes": 2105,
      "Ġchange": 2106,
      "123": 2107,
      "ĠcheckI": 2108,
      "Ġsu": 2109,
      "Ġmedian": 2110,
      "seq": 2111,
      "Ġchildren": 2112,
      "Subarrays": 2113,
      "Ġrot": 2114,
      "89": 2115,
      "total": 2116,
      "Ġdown": 2117,
      "Duplic": 2118,
      "Chain": 2119,
      "CharCode": 2120,
      "ĠfromCharCode": 2121,
      "EN": 2122,
      "Ġsource": 2123,
      "ternate": 2124,
      "ual": 2125,
      "dict": 2126,
      "egment": 2127,
      "Ġmpp": 2128,
      "Ġrows": 2129,
      "inc": 2130,
      "Ġdx": 2131,
      "Subsequences": 2132,
      "Winner": 2133,
      "Ġdiameter": 2134,
      "Ġoperations": 2135,
      "arent": 2136,
      "67": 2137,
      "cat": 2138,
      "case": 2139,
      "onic": 2140,
      "ĠmaxProduct": 2141,
      "ĠCheck": 2142,
      "ens": 2143,
      "ĠfindMaximum": 2144,
      "Diagonal": 2145,
      "Occurr": 2146,
      "ĠtoF": 2147,
      "Ġfour": 2148,
      "Ġpreorder": 2149,
      "Ġ255": 2150,
      "Pl": 2151,
      "Ġsolution": 2152,
      "Ġmsb": 2153,
      "aw": 2154,
      "Interse": 2155,
      "DigitSum": 2156,
      "ĠbitCount": 2157,
      "Sieve": 2158,
      "ycle": 2159,
      "Ġcatalan": 2160,
      "ĠmaxCount": 2161,
      "ĠminSteps": 2162,
      "subarray": 2163,
      "state": 2164,
      "Ġhalf": 2165,
      "ĠminDiff": 2166,
      "Ġindices": 2167,
      "Ġsubarray": 2168,
      "25": 2169,
      "ĠfirstDigit": 2170,
      "Profit": 2171,
      "Ġslow": 2172,
      "Ġmissing": 2173,
      "ick": 2174,
      "ĠaddChild": 2175,
      "ĠEx": 2176,
      "Permutations": 2177,
      "ĠReverse": 2178,
      "Ġnon": 2179,
      "Ġ55": 2180,
      "ĠfindLargest": 2181,
      "Factorial": 2182,
      "ĠComp": 2183,
      "quation": 2184,
      "ew": 2185,
      "Remo": 2186,
      "Ġinterval": 2187,
      "ĠLCA": 2188,
      "Ġextra": 2189,
      "ĠdigitSum": 2190,
      "Ġrh": 2191,
      "Ġdefault": 2192,
      "ĠtoFixed": 2193,
      "ĠmaxW": 2194,
      "Ġstrr": 2195,
      "Ġ42": 2196,
      "ĠpreSum": 2197,
      "Ġmultip": 2198,
      "Ġfr": 2199,
      "Ġam": 2200,
      "Ġneed": 2201,
      "Ġ500": 2202,
      "InRange": 2203,
      "1415": 2204,
      "Ġsumof": 2205,
      "ĠsumOfDigits": 2206,
      "Ġpalindrome": 2207,
      "Ġpivot": 2208,
      "idx": 2209,
      "Subseq": 2210,
      "Ġsmaller": 2211,
      "Ġcos": 2212,
      "Inverse": 2213,
      "Depth": 2214,
      "Ġred": 2215,
      "atio": 2216,
      "ĠfindS": 2217,
      "Ġparity": 2218,
      "Rotate": 2219,
      "Lower": 2220,
      "ĠtotalSum": 2221,
      "erg": 2222,
      "Values": 2223,
      "Be": 2224,
      "cm": 2225,
      "ĠisPowerOfTwo": 2226,
      "Ġvertex": 2227,
      "ĠmaxValue": 2228,
      "Ġobj": 2229,
      "ayer": 2230,
      "phab": 2231,
      "Ġslope": 2232,
      "As": 2233,
      "Table": 2234,
      "Ġafter": 2235,
      "Ġmaximize": 2236,
      "ech": 2237,
      "minimum": 2238,
      "Consecutive": 2239,
      "ĠcurrSum": 2240,
      "div": 2241,
      "Ġaa": 2242,
      "Ġexpr": 2243,
      "afe": 2244,
      "Common": 2245,
      "Mid": 2246,
      "Qu": 2247,
      "SubarraySum": 2248,
      "Make": 2249,
      "Heap": 2250,
      "Frequency": 2251,
      "ĠfindLC": 2252,
      "Ġremainder": 2253,
      "ĠCO": 2254,
      "adr": 2255,
      "ominator": 2256,
      "part": 2257,
      "etwe": 2258,
      "boolean": 2259,
      "etween": 2260,
      "Ġaab": 2261,
      "Ġleaf": 2262,
      "ĠPI": 2263,
      "peed": 2264,
      "alindromic": 2265,
      "square": 2266,
      "Ġprecompute": 2267,
      "version": 2268,
      "NS": 2269,
      "Ġ123": 2270,
      "Angle": 2271,
      "1111": 2272,
      "raction": 2273,
      "14159": 2274,
      "Graph": 2275,
      "ĠfindP": 2276,
      "ĠTuple": 2277,
      "ĠconstructST": 2278,
      "cos": 2279,
      "Head": 2280,
      "Ġ::": 2281,
      "Ġlex": 2282,
      "Ġen": 2283,
      "ĠPop": 2284,
      "ave": 2285,
      "Ġvolume": 2286,
      "Ġdir": 2287,
      "ĠsetBits": 2288,
      "ple": 2289,
      "pted": 2290,
      "word": 2291,
      "Ġ~": 2292,
      "Ġdefaultdict": 2293,
      "adj": 2294,
      "angular": 2295,
      "ĠDFS": 2296,
      "Ġvisit": 2297,
      "Characters": 2298,
      "lloc": 2299,
      "ĠcalculateSum": 2300,
      "ĠIndex": 2301,
      "Ġprobability": 2302,
      "ER": 2303,
      "KS": 2304,
      "ĠisEven": 2305,
      "ĠĠĠĊ": 2306,
      "Ġmodify": 2307,
      "Ġremaining": 2308,
      "ĠLen": 2309,
      "Union": 2310,
      "ĠcountOfNumbers": 2311,
      "Exp": 2312,
      "Each": 2313,
      "Ġctr": 2314,
      "factors": 2315,
      "ĠLCS": 2316,
      "Dictionary": 2317,
      "Given": 2318,
      "Ġday": 2319,
      "ĠDist": 2320,
      "ling": 2321,
      "tri": 2322,
      "rement": 2323,
      "Ġoriginal": 2324,
      "orr": 2325,
      "Ġtimes": 2326,
      "PowerOf": 2327,
      "ĠSIZE": 2328,
      "ĠToString": 2329,
      "ĠfindWays": 2330,
      "fg": 2331,
      "Ġabcd": 2332,
      "Ġmarked": 2333,
      "Negative": 2334,
      "fact": 2335,
      "ĠCon": 2336,
      "Insert": 2337,
      "ainder": 2338,
      "econd": 2339,
      "Maximum": 2340,
      "Most": 2341,
      "ĠTrieNode": 2342,
      "Ġlazy": 2343,
      "phabet": 2344,
      "pf": 2345,
      "ĠJoin": 2346,
      "Ġmaxn": 2347,
      "Ġseries": 2348,
      "Ġtriangle": 2349,
      "sol": 2350,
      "swap": 2351,
      "Ġdecimal": 2352,
      "24": 2353,
      "98": 2354,
      "foreach": 2355,
      "peated": 2356,
      "Ġloc": 2357,
      "ĠRight": 2358,
      "Ġlin": 2359,
      "sonants": 2360,
      "ĠcountMin": 2361,
      "ĠfindMissing": 2362,
      "Divisor": 2363,
      "Ġread": 2364,
      "Subsets": 2365,
      "Ġreadonly": 2366,
      "Red": 2367,
      "ĠContains": 2368,
      "reatest": 2369,
      "Add": 2370,
      "Ġclear": 2371,
      "ĠfindNumbers": 2372,
      "Sets": 2373,
      "onth": 2374,
      "Answer": 2375,
      "Ġdif": 2376,
      "ĠcountPrime": 2377,
      "smallest": 2378,
      "ud": 2379,
      "Ġtext": 2380,
      "Ġegg": 2381,
      "erged": 2382,
      "ĠcountSubstring": 2383,
      "possible": 2384,
      "ĠfindLongest": 2385,
      "Delet": 2386,
      "flag": 2387,
      "Ġcode": 2388,
      "Def": 2389,
      "Ġrb": 2390,
      "ure": 2391,
      "ulo": 2392,
      "ression": 2393,
      "Reach": 2394,
      "push": 2395,
      "Ġby": 2396,
      "Sq": 2397,
      "uous": 2398,
      "Ġoccurr": 2399,
      "Anagram": 2400,
      "Ġtraversal": 2401,
      "ĠbuildTree": 2402,
      "Decimal": 2403,
      "Ġpo": 2404,
      "Ġmalloc": 2405,
      "Ġ98": 2406,
      "binations": 2407,
      "Triangle": 2408,
      "ĠmaxSize": 2409,
      "Ġok": 2410,
      "Ġrect": 2411,
      "ĠlastDigit": 2412,
      "ĠEntry": 2413,
      "Ġprocess": 2414,
      "Price": 2415,
      "Ġ120": 2416,
      "AA": 2417,
      "uce": 2418,
      "ors": 2419,
      "Ġref": 2420,
      "Ġhighest": 2421,
      "aken": 2422,
      "echo": 2423,
      "ĠminOperation": 2424,
      "Ġvalid": 2425,
      "ĠLeft": 2426,
      "oper": 2427,
      "Ġcentered": 2428,
      "perm": 2429,
      "EEKS": 2430,
      "Ġnp": 2431,
      "arse": 2432,
      "Ġmaxx": 2433,
      "01": 2434,
      "stack": 2435,
      "arest": 2436,
      "forGeeks": 2437,
      "After": 2438,
      "elements": 2439,
      "Dis": 2440,
      "Mean": 2441,
      "adecagonal": 2442,
      "distance": 2443,
      "uler": 2444,
      "ĠmaxEle": 2445,
      "unordered": 2446,
      "ĠAdj": 2447,
      "HP": 2448,
      "ba": 2449,
      "limit": 2450,
      "NumberOf": 2451,
      "maximum": 2452,
      "side": 2453,
      "Ġranges": 2454,
      "Adjacent": 2455,
      "55": 2456,
      "Ġjump": 2457,
      "Segment": 2458,
      "Ġobst": 2459,
      "height": 2460,
      "Ġtup": 2461,
      "visited": 2462,
      "seg": 2463,
      "Ġllist": 2464,
      "uck": 2465,
      "points": 2466,
      "indow": 2467,
      "matrix": 2468,
      "jority": 2469,
      "sive": 2470,
      "ĠmaxA": 2471,
      "ĠCOL": 2472,
      "ĠminIndex": 2473,
      "Rev": 2474,
      "ĠInorder": 2475,
      "xy": 2476,
      "ĠSumOf": 2477,
      "OW": 2478,
      "Ġsc": 2479,
      "ating": 2480,
      "Ġdays": 2481,
      "Ġbound": 2482,
      "ĠcountOdd": 2483,
      "alindromes": 2484,
      "Palin": 2485,
      "ther": 2486,
      "Largest": 2487,
      "Ġcl": 2488,
      "Ġpreprocess": 2489,
      "Ġexcl": 2490,
      "1010": 2491,
      "Compute": 2492,
      "Cont": 2493,
      "ĠSorted": 2494,
      "ValuePair": 2495,
      "ĠKeyValuePair": 2496,
      "Ġdegree": 2497,
      "Closest": 2498,
      "LCM": 2499,
      "ĠprintK": 2500,
      "Hex": 2501,
      "br": 2502,
      "Ġoff": 2503,
      "ĠGeeksforGeeks": 2504,
      "mask": 2505,
      "Upper": 2506,
      "dfs": 2507,
      "Ġsin": 2508,
      "alin": 2509,
      "SubStr": 2510,
      "Ġfi": 2511,
      "Ġprivate": 2512,
      "ott": 2513,
      "Ġbl": 2514,
      "oop": 2515,
      "entence": 2516,
      "ĠPos": 2517,
      "Ġformat": 2518,
      "Ġexponent": 2519,
      "ĠPrefix": 2520,
      "Dig": 2521,
      "utation": 2522,
      "ĠtestCase": 2523,
      "Ġrotate": 2524,
      "Ġdfa": 2525,
      "ĠSolution": 2526,
      "Ġad": 2527,
      "Ġreg": 2528,
      "Parity": 2529,
      "acont": 2530,
      "SubsetSum": 2531,
      "power": 2532,
      "Ġmerged": 2533,
      "ĠcountPaths": 2534,
      "cest": 2535,
      "Ġnearest": 2536,
      "Ġ43": 2537,
      "ĠLongest": 2538,
      "ress": 2539,
      "Reverse": 2540,
      "Ġinfo": 2541,
      "Days": 2542,
      "ĠcntPairs": 2543,
      "ĠprimeFactors": 2544,
      "ĠcanBe": 2545,
      "erval": 2546,
      "ĠQueries": 2547,
      "ĠinsertNode": 2548,
      "ĠInsert": 2549,
      "Ġocc": 2550,
      "PS": 2551,
      "SumUtil": 2552,
      "Character": 2553,
      "Terms": 2554,
      "Remove": 2555,
      "ĠentrySet": 2556,
      "search": 2557,
      "SubArraySum": 2558,
      "BIT": 2559,
      "abc": 2560,
      "pha": 2561,
      "13": 2562,
      "uns": 2563,
      "hift": 2564,
      "deg": 2565,
      "Form": 2566,
      "Suffix": 2567,
      "ake": 2568,
      "with": 2569,
      "hash": 2570,
      "Ġer": 2571,
      "ĠmaxB": 2572,
      "angement": 2573,
      "Ġnumerator": 2574,
      "Ġadjacent": 2575,
      "Ġcenter": 2576,
      "Ġhelper": 2577,
      "ĠisC": 2578,
      "alance": 2579,
      "ĠsumOfSeries": 2580,
      "Ġrecord": 2581,
      "rn": 2582,
      "ination": 2583,
      "Ġcoins": 2584,
      "Ġdenominator": 2585,
      "ĠmaxE": 2586,
      "ĠInput": 2587,
      "vowel": 2588,
      "ĠwaysTo": 2589,
      "Ġturn": 2590,
      "Ġed": 2591,
      "reen": 2592,
      "ĠCountWays": 2593,
      "Composite": 2594,
      "Intersection": 2595,
      "ĠobstPos": 2596,
      "Missing": 2597,
      "ĠasList": 2598,
      "neg": 2599,
      "ĠmaxElement": 2600,
      "PrimeFactors": 2601,
      "Bin": 2602,
      "Ġxx": 2603,
      "ĠCalculate": 2604,
      "ĠsumOdd": 2605,
      "Ġminm": 2606,
      "ĠInterval": 2607,
      "gr": 2608,
      "etri": 2609,
      "Ġ1001": 2610,
      "Ġmaxval": 2611,
      "ish": 2612,
      "exp": 2613,
      "Partition": 2614,
      "Ġperform": 2615,
      "Ġ99": 2616,
      "Ġerase": 2617,
      "ĠisA": 2618,
      "0001": 2619,
      "Ġry": 2620,
      "ĠSmallest": 2621,
      "ĠforEach": 2622,
      "ĠCeil": 2623,
      "acity": 2624,
      "SubSeq": 2625,
      "ĠsecondMax": 2626,
      "Ġnegative": 2627,
      "ĠprintSum": 2628,
      "tract": 2629,
      "BST": 2630,
      "Ins": 2631,
      "Ġpa": 2632,
      "ĠROW": 2633,
      "Ops": 2634,
      "ĠNth": 2635,
      "ircle": 2636,
      "Step": 2637,
      "ĠprintP": 2638,
      "ĠPHP": 2639,
      "ĠevenSum": 2640,
      "Ġbitwise": 2641,
      "Ġdivisible": 2642,
      "Ġ&=": 2643,
      "ĠminC": 2644,
      "Chars": 2645,
      "lca": 2646,
      "Ġus": 2647,
      "ĠTest": 2648,
      "Ġencode": 2649,
      "ĠmodInverse": 2650,
      "Ġcollections": 2651,
      "ĠTr": 2652,
      "Ġ99999": 2653,
      "Present": 2654,
      "face": 2655,
      "Ġcb": 2656,
      "urface": 2657,
      "Ġsums": 2658,
      "plac": 2659,
      "Ġbox": 2660,
      "PerfectSquare": 2661,
      "const": 2662,
      "Ġtwos": 2663,
      "ottom": 2664,
      "Ġpres": 2665,
      "Ġperimeter": 2666,
      "off": 2667,
      "Ġops": 2668,
      "isect": 2669,
      "Craw": 2670,
      "Crawl": 2671,
      "ĠnumOf": 2672,
      "read": 2673,
      "ĠNumberOf": 2674,
      "Ġsingle": 2675,
      "ĠcountDigit": 2676,
      "ĠFound": 2677,
      "Alt": 2678,
      "ĠdeleteNode": 2679,
      "oct": 2680,
      "ĠprintMatrix": 2681,
      "first": 2682,
      "Ġdet": 2683,
      "Ġkn": 2684,
      "PathUtil": 2685,
      "ailing": 2686,
      "Zeroes": 2687,
      "ral": 2688,
      "tual": 2689,
      "uild": 2690,
      "Ġnfa": 2691,
      "Ġvir": 2692,
      "cept": 2693,
      "ĠcheckIf": 2694,
      "Ġvirtual": 2695,
      "Match": 2696,
      "HashMap": 2697,
      "Down": 2698,
      "ĠmaxScore": 2699,
      "ĠoddSum": 2700,
      "Vowels": 2701,
      "ĠItem": 2702,
      "Ġused": 2703,
      "4836": 2704,
      "Side": 2705,
      "by": 2706,
      "Ġdq": 2707,
      "lected": 2708,
      "oups": 2709,
      "ĠleftRotate": 2710,
      "Open": 2711,
      "Ġcycle": 2712,
      "ĠsumEven": 2713,
      "permutation": 2714,
      "cent": 2715,
      "Ġtm": 2716,
      "ĠmaxL": 2717,
      "ĠLargest": 2718,
      "divisor": 2719,
      "eak": 2720,
      "Changes": 2721,
      "rypt": 2722,
      "Divis": 2723,
      "ĠpCrawl": 2724,
      "Ġ38": 2725,
      "Ġ1000001": 2726,
      "cc": 2727,
      "leaf": 2728,
      "ĠisSubsetSum": 2729,
      "Ġ2147": 2730,
      "Ġ21474836": 2731,
      "hed": 2732,
      "ĠtmpStack": 2733,
      "largest": 2734,
      "ĠNext": 2735,
      "Ġbisect": 2736,
      "ĠgetKey": 2737,
      "rease": 2738,
      "iagonal": 2739,
      "key": 2740,
      "fore": 2741,
      "ping": 2742,
      "xp": 2743,
      "Ġncr": 2744,
      "ĠisF": 2745,
      "ĠfindCnt": 2746,
      "ĠminimumCost": 2747,
      "AC": 2748,
      "oi": 2749,
      "Ġking": 2750,
      "ĠprevSum": 2751,
      "Triangles": 2752,
      "ID": 2753,
      "table": 2754,
      "dent": 2755,
      "ĠAfter": 2756,
      "Ġminmax": 2757,
      "ĠpreIndex": 2758,
      "22": 2759,
      "moves": 2760,
      "Ġlb": 2761,
      "ĠPath": 2762,
      "111": 2763,
      "Ġ360": 2764,
      "ĠprocessSize": 2765,
      "OfL": 2766,
      "ĠLinq": 2767,
      "Cubes": 2768,
      "Out": 2769,
      "oprime": 2770,
      "Duplicates": 2771,
      "Ġamount": 2772,
      "ĠCeiling": 2773,
      "Ġregex": 2774,
      "trx": 2775,
      "ĠmaxSubArraySum": 2776,
      "Ġmarks": 2777,
      "HashSet": 2778,
      "ĠminA": 2779,
      "pose": 2780,
      "Ġmtrx": 2781,
      "Ġxr": 2782,
      "wit": 2783,
      "ĠminValue": 2784,
      "ArrayList": 2785,
      "witch": 2786,
      "Edges": 2787,
      "Ġrs": 2788,
      "Ġcoin": 2789,
      "Flips": 2790,
      "Median": 2791,
      "dis": 2792,
      "Ġls": 2793,
      "ĠmaxC": 2794,
      "Ġconcat": 2795,
      "Jumps": 2796,
      "lap": 2797,
      "Ġmonth": 2798,
      "verlap": 2799,
      "Ġdiagonal": 2800,
      "ox": 2801,
      "Ġcut": 2802,
      "Ġqi": 2803,
      "adius": 2804,
      "Removals": 2805,
      "Ġlst": 2806,
      "Ġindexes": 2807,
      "Ġmodified": 2808,
      "ends": 2809,
      "ĠSubarray": 2810,
      "Ġthan": 2811,
      "Ġelem": 2812,
      "46": 2813,
      "ĠBC": 2814,
      "GP": 2815,
      "Ġfin": 2816,
      "Ġeval": 2817,
      "Ġtemparray": 2818,
      "Gcd": 2819,
      "Ġ49": 2820,
      "ĠminDistance": 2821,
      "Ġreduce": 2822,
      "inverse": 2823,
      "thread": 2824,
      "iral": 2825,
      "ĠFloor": 2826,
      "ograph": 2827,
      "Ġzeroes": 2828,
      "nect": 2829,
      "Ġgfg": 2830,
      "Ġpositive": 2831,
      "ĠpowerOf": 2832,
      "ss": 2833,
      "ĠPl": 2834,
      "ĠsubsetSum": 2835,
      "Multiple": 2836,
      "True": 2837,
      "ĠfindA": 2838,
      "strong": 2839,
      "Inter": 2840,
      "answer": 2841,
      "ĠmergeSort": 2842,
      "Leaves": 2843,
      "Ġsl": 2844,
      "ĠPr": 2845,
      "Item": 2846,
      "ĠKth": 2847,
      "ermutation": 2848,
      "Than": 2849,
      "ĠRemoveAt": 2850,
      "pop": 2851,
      "Ġsuc": 2852,
      "omb": 2853,
      "Br": 2854,
      "lib": 2855,
      "mem": 2856,
      "pow": 2857,
      "Ġfun": 2858,
      "stdlib": 2859,
      "agonNum": 2860,
      "ck": 2861,
      "ms": 2862,
      "Ġon": 2863,
      "Ġrand": 2864,
      "Ġcoun": 2865,
      "gn": 2866,
      "Ġoccur": 2867,
      "ribution": 2868,
      "Ġfibonacci": 2869,
      "Ġcomb": 2870,
      "Ġcapacity": 2871,
      "Ty": 2872,
      "high": 2873,
      "Ġstream": 2874,
      "001": 2875,
      "Subarr": 2876,
      "ipal": 2877,
      "rypted": 2878,
      "ĠnoOfWays": 2879,
      "Theta": 2880,
      "incipal": 2881,
      "Deletions": 2882,
      "ĠisOdd": 2883,
      "ĠmaxFreq": 2884,
      "Ġwidth": 2885,
      "Ġchain": 2886,
      "ĠisSafe": 2887,
      "Ġrecur": 2888,
      "Rotation": 2889,
      "Increasing": 2890,
      "18": 2891,
      "Ġyear": 2892,
      "Ġexists": 2893,
      "Ġ@": 2894,
      "ĠblockSize": 2895,
      "Four": 2896,
      "etra": 2897,
      "ĠbCount": 2898,
      "Ġhe": 2899,
      "Ġfourth": 2900,
      "ei": 2901,
      "Ġrx": 2902,
      "eces": 2903,
      "Ġbetween": 2904,
      "ten": 2905,
      "ĠconstructSTUtil": 2906,
      "Sack": 2907,
      "mstrong": 2908,
      "ĠisSum": 2909,
      "ĠpreCompute": 2910,
      "apSack": 2911,
      "ToMake": 2912,
      "emi": 2913,
      "ĠGraph": 2914,
      "Ġinsertion": 2915,
      "ĠallPrimes": 2916,
      "Ġbitscount": 2917,
      "Less": 2918,
      "Ġmt": 2919,
      "ĠcountDistinct": 2920,
      "ĠminSwaps": 2921,
      "ĠnumberOfWays": 2922,
      "Ġpoly": 2923,
      "ĠmaxPath": 2924,
      "ĠfindN": 2925,
      "hex": 2926,
      "Ġtheta": 2927,
      "Ġmultiple": 2928,
      "ĠfindPair": 2929,
      "Ġcurrsum": 2930,
      "ĠXor": 2931,
      "Ġmodinverse": 2932,
      "Ġexist": 2933,
      "Game": 2934,
      "Ġsquares": 2935,
      "Ġ39": 2936,
      "Ġcurrlen": 2937,
      "Ġxorr": 2938,
      "ĠcountDP": 2939,
      "Ġisprime": 2940,
      "aba": 2941,
      "Ġtrav": 2942,
      "Prev": 2943,
      "Ġcandies": 2944,
      "141592": 2945,
      "math": 2946,
      "Ġaverage": 2947,
      "Ġsim": 2948,
      "Ġpp": 2949,
      "ĠtMat": 2950,
      "ane": 2951,
      "co": 2952,
      "orner": 2953,
      "icograph": 2954,
      "ĠgetTotal": 2955,
      "Ġsecondary": 2956,
      "Minimum": 2957,
      "12345": 2958,
      "Weight": 2959,
      "irror": 2960,
      "sz": 2961,
      "ĠcountStrings": 2962,
      "ĠpreOrder": 2963,
      "Ġdiag": 2964,
      "Ġduplic": 2965,
      "Ġvertical": 2966,
      "ĠPlayer": 2967,
      "Deg": 2968,
      "sq": 2969,
      "arn": 2970,
      "ĠprePr": 2971,
      "ances": 2972,
      "opes": 2973,
      "Strt": 2974,
      "Ġli": 2975,
      "aining": 2976,
      "Half": 2977,
      "ale": 2978,
      "gon": 2979,
      "Ġleast": 2980,
      "current": 2981,
      "Color": 2982,
      "ĠfindLCA": 2983,
      "ĠcountSubstrings": 2984,
      "Type": 2985,
      "Ġef": 2986,
      "ĠTEN": 2987,
      "Floor": 2988,
      "SB": 2989,
      "rap": 2990,
      "ym": 2991,
      "Ġnow": 2992,
      "ĠprintS": 2993,
      "med": 2994,
      "ĠisM": 2995,
      "Powerof": 2996,
      "Ġthree": 2997,
      "palindrome": 2998,
      "zeros": 2999,
      "Ġpw": 3000,
      "Ġprices": 3001,
      "ĠprintAll": 3002,
      "anced": 3003,
      "ĠoddCount": 3004,
      "balanced": 3005,
      "ĠisPowerOf": 3006,
      "ĠdigSum": 3007,
      "ĠDequeue": 3008,
      "Ġpresum": 3009,
      "my": 3010,
      "ĠValid": 3011,
      "Ġcounts": 3012,
      "Ġincl": 3013,
      "distinct": 3014,
      "day": 3015,
      "equal": 3016,
      "Ġ37": 3017,
      "ĠmaxPrime": 3018,
      "ision": 3019,
      "Bitwise": 3020,
      "lcm": 3021,
      "ĠGEEKS": 3022,
      "75": 3023,
      "Parent": 3024,
      "prod": 3025,
      "Ġaaa": 3026,
      "ĠnextPowerOf": 3027,
      "Ġ10000000": 3028,
      "Probability": 3029,
      "UM": 3030,
      "next": 3031,
      "ĠFindMax": 3032,
      "ĠkthSmallest": 3033,
      "Beg": 3034,
      "Totient": 3035,
      "ĠgetOr": 3036,
      "Bitonic": 3037,
      "ĠupdateValue": 3038,
      "ĠfindR": 3039,
      "ĠPri": 3040,
      "ĠQu": 3041,
      "cess": 3042,
      "Ġcomm": 3043,
      "ĠperformQueries": 3044,
      "Ġencoded": 3045,
      "Turn": 3046,
      "mn": 3047,
      "nary": 3048,
      "ward": 3049,
      "Ġnxt": 3050,
      "Ġent": 3051,
      "ĠfindWinner": 3052,
      "ĠcurrY": 3053,
      "ĠPQ": 3054,
      "Ġsubtract": 3055,
      "Ġtranspose": 3056,
      "Multiples": 3057,
      "vowels": 3058,
      "Ġequation": 3059,
      "ĠstepNum": 3060,
      "Ġobject": 3061,
      "AT": 3062,
      "sp": 3063,
      "rection": 3064,
      "reps": 3065,
      "ĠprintMax": 3066,
      "Ġ<<=": 3067,
      "Ġ67": 3068,
      "vers": 3069,
      "ĠcreateNode": 3070,
      "Combinations": 3071,
      "Occurrences": 3072,
      "Quadr": 3073,
      "LessThan": 3074,
      "eet": 3075,
      "vl": 3076,
      "Ġro": 3077,
      "Ġcond": 3078,
      "ĠcountNum": 3079,
      "LevelOrder": 3080,
      "numbers": 3081,
      "Ġquick": 3082,
      "Ġsegments": 3083,
      "35": 3084,
      "Lin": 3085,
      "action": 3086,
      "Ġoffset": 3087,
      "Ġstri": 3088,
      "ĠCHAR": 3089,
      "Ġletter": 3090,
      "vec": 3091,
      "Ġsubs": 3092,
      "Not": 3093,
      "fun": 3094,
      "ĠinEnd": 3095,
      "ĠinStrt": 3096,
      "Ġ89": 3097,
      "requ": 3098,
      "ĠcheckPalindrome": 3099,
      "ĠEqual": 3100,
      "Ġdividend": 3101,
      "Default": 3102,
      "Ġvol": 3103,
      "Ġ52": 3104,
      "Combination": 3105,
      "etric": 3106,
      "required": 3107,
      "Ġbad": 3108,
      "ĠmaxArea": 3109,
      "ĠDec": 3110,
      "Sequences": 3111,
      "Ġdestination": 3112,
      "Ġsep": 3113,
      "Ġalphabet": 3114,
      "1001": 3115,
      "Ġ\");": 3116,
      "ouse": 3117,
      "section": 3118,
      "ĠprintT": 3119,
      "ĠfindPairs": 3120,
      "ĠcheckEqual": 3121,
      "Positive": 3122,
      "Remaining": 3123,
      "ĠLCM": 3124,
      "Ġpiles": 3125,
      "Ġ51": 3126,
      "Free": 3127,
      "Suc": 3128,
      "ĠSuffix": 3129,
      "ĠmaxProfit": 3130,
      "Ġrepeating": 3131,
      "Ġpowers": 3132,
      "Ġcosts": 3133,
      "Ġdoes": 3134,
      "Ġname": 3135,
      "Ġincrement": 3136,
      "Ġvertices": 3137,
      "flow": 3138,
      "Ġfive": 3139,
      "Ġjumps": 3140,
      "reverse": 3141,
      "ĠisK": 3142,
      "ĠConvert": 3143,
      "ĠisLeaf": 3144,
      "ĠminimumOperations": 3145,
      "Ġplace": 3146,
      "ĠmaxProd": 3147,
      "Ġ400": 3148,
      "Ġcompar": 3149,
      "Three": 3150,
      "alent": 3151,
      "Found": 3152,
      "com": 3153,
      "reg": 3154,
      "Ġ41": 3155,
      "Ġhouse": 3156,
      "Ġdeque": 3157,
      "Ġproc": 3158,
      "operations": 3159,
      "33": 3160,
      "Ġold": 3161,
      "Ġsentence": 3162,
      "Ġcy": 3163,
      "ser": 3164,
      "Ġlh": 3165,
      "Ġsubtree": 3166,
      "values": 3167,
      "Ġscreen": 3168,
      "ĠgetOrDefault": 3169,
      "ĠcountB": 3170,
      "ĠcountEven": 3171,
      "ĠinOrder": 3172,
      "Ġdes": 3173,
      "Ġgray": 3174,
      "Ġrectangle": 3175,
      "Equ": 3176,
      "Mask": 3177,
      "Vis": 3178,
      "Ġpalin": 3179,
      "ĠgetMid": 3180,
      "SubArr": 3181,
      "nodes": 3182,
      "Ġ1000005": 3183,
      "rows": 3184,
      "build": 3185,
      "Ġform": 3186,
      "Ġinitialize": 3187,
      "Palindromic": 3188,
      "merge": 3189,
      "po": 3190,
      "Ġmode": 3191,
      "ĠSecond": 3192,
      "ĠtNode": 3193,
      "Ġzig": 3194,
      "ermute": 3195,
      "Ġexit": 3196,
      "ToBinary": 3197,
      "riginal": 3198,
      "pad": 3199,
      "zz": 3200,
      "Ġlenn": 3201,
      "ĠhashMap": 3202,
      "999": 3203,
      "Ġmsd": 3204,
      "Ġblk": 3205,
      "64": 3206,
      "Ratio": 3207,
      "epe": 3208,
      "ma": 3209,
      "trees": 3210,
      "Ġlies": 3211,
      "Ġ54": 3212,
      "ĠfindString": 3213,
      "oly": 3214,
      "ĠcountSquares": 3215,
      "Divide": 3216,
      "obius": 3217,
      "Traversal": 3218,
      "epest": 3219,
      "Ġratio": 3220,
      "ĠmaxDistance": 3221,
      "Ġhor": 3222,
      "Ġgeek": 3223,
      "Ġminval": 3224,
      "ĠBit": 3225,
      "ĠVolume": 3226,
      "ĠinsertEdge": 3227,
      "Ġabcdef": 3228,
      "bc": 3229,
      "ernary": 3230,
      "ĠrightMax": 3231,
      "Ġgetchar": 3232,
      "Ġprincipal": 3233,
      "KthBit": 3234,
      "cont": 3235,
      "ĠisL": 3236,
      "ĠfindNum": 3237,
      "Inv": 3238,
      "Check": 3239,
      "frequency": 3240,
      "Special": 3241,
      "Fill": 3242,
      "Print": 3243,
      "cal": 3244,
      "use": 3245,
      "ĠLast": 3246,
      "Sums": 3247,
      "pected": 3248,
      "Ġexact": 3249,
      "Triangular": 3250,
      "ĠfindMaxSum": 3251,
      "Consonants": 3252,
      "Ġtli": 3253,
      "Ġtlj": 3254,
      "Ġpoll": 3255,
      "Flip": 3256,
      "Plus": 3257,
      "Ġsx": 3258,
      "ities": 3259,
      "Ġmaxlength": 3260,
      "ĠisPre": 3261,
      "ĠsortArr": 3262,
      "ĠfindNthTerm": 3263,
      "..": 3264,
      "Are": 3265,
      "Grid": 3266,
      "sieve": 3267,
      "Ġpermutation": 3268,
      "ĠcountT": 3269,
      "ĠsumDigits": 3270,
      "ilter": 3271,
      "Ġrear": 3272,
      "Recursive": 3273,
      "ĠSquare": 3274,
      "Ġtp": 3275,
      "ĠlongestSubsequence": 3276,
      "BinaryTree": 3277,
      "bined": 3278,
      "Ġmind": 3279,
      "orph": 3280,
      "ĠmidVal": 3281,
      "MaxIdx": 3282,
      "ĠpathLen": 3283,
      "cii": 3284,
      "Ġopenbr": 3285,
      "ĠeggFloor": 3286,
      "orphic": 3287,
      "Ġopenbrk": 3288,
      "ĠUnion": 3289,
      "ĠisComposite": 3290,
      "ocation": 3291,
      "opy": 3292,
      "Powers": 3293,
      "Substrings": 3294,
      "Duplicate": 3295,
      "Random": 3296,
      "Ġax": 3297,
      "Ġtaken": 3298,
      "idate": 3299,
      "itude": 3300,
      "ĠfindXOR": 3301,
      "ĠindexOf": 3302,
      "1011": 3303,
      "ĠsmallestNumber": 3304,
      "Fraction": 3305,
      "oub": 3306,
      "ĠfindFirst": 3307,
      "match": 3308,
      "second": 3309,
      "Func": 3310,
      "Ptr": 3311,
      "Zag": 3312,
      "Ġ...": 3313,
      "ice": 3314,
      "iguous": 3315,
      "Ġkeypad": 3316,
      "Ġmodulo": 3317,
      "ToDecimal": 3318,
      "Rotations": 3319,
      "non": 3320,
      "ĠcountDivisors": 3321,
      "Ġconnect": 3322,
      "Ġdiffer": 3323,
      "Ġcomponent": 3324,
      "Ġspecial": 3325,
      "ĠOut": 3326,
      "Ġalpha": 3327,
      "Del": 3328,
      "cf": 3329,
      "gt": 3330,
      "Ġ300": 3331,
      "ĠfindKth": 3332,
      "Ġcharacter": 3333,
      "Pointer": 3334,
      "Ġquotient": 3335,
      "orityQueue": 3336,
      "Integers": 3337,
      "primes": 3338,
      "Ġboundary": 3339,
      "Ġduplicate": 3340,
      "Ġinteger": 3341,
      "ĠMid": 3342,
      "Ġbr": 3343,
      "ĠmyNode": 3344,
      "50": 3345,
      "da": 3346,
      "hortest": 3347,
      "Ġswitch": 3348,
      "inder": 3349,
      "Ġinclude": 3350,
      "ĠLong": 3351,
      "ĠfindIndex": 3352,
      "Ġchars": 3353,
      "ĠBIT": 3354,
      "Ġqueens": 3355,
      "ontal": 3356,
      "Ġterms": 3357,
      "izontal": 3358,
      "Ġbefore": 3359,
      "Ġsuch": 3360,
      "ĠABC": 3361,
      "ĠperfectSquares": 3362,
      "alls": 3363,
      "IO": 3364,
      "found": 3365,
      "lect": 3366,
      "Ġ63": 3367,
      "udent": 3368,
      "Ġ81": 3369,
      "Occur": 3370,
      "Ġcross": 3371,
      "SieveOfEratosthenes": 3372,
      "placement": 3373,
      "line": 3374,
      "ĠSource": 3375,
      "ĠprintPath": 3376,
      "ĠmaxH": 3377,
      "Ġbread": 3378,
      "Ġupd": 3379,
      "False": 3380,
      "Ġri": 3381,
      "Ġ2000": 3382,
      "ashCode": 3383,
      "ĠcountSubStr": 3384,
      "Exists": 3385,
      "Alternate": 3386,
      "icographical": 3387,
      "mx": 3388,
      "Ġminimize": 3389,
      "ĠisCon": 3390,
      "Ġdeno": 3391,
      "PrimeFactor": 3392,
      "Wise": 3393,
      "weight": 3394,
      "ert": 3395,
      "ĠmaxM": 3396,
      "Ġwor": 3397,
      "Ġ72": 3398,
      "ĠThere": 3399,
      "Ġabab": 3400,
      "add": 3401,
      "jk": 3402,
      "ĠcCount": 3403,
      "Ġhashmap": 3404,
      "ĠModified": 3405,
      "LE": 3406,
      "Till": 3407,
      "cision": 3408,
      "ful": 3409,
      "Ġfif": 3410,
      "Ġleng": 3411,
      "Ġ96": 3412,
      "ĠisBalanced": 3413,
      "rev": 3414,
      "ĠCom": 3415,
      "ĠminimumSteps": 3416,
      "Ġrsum": 3417,
      "ĠcountF": 3418,
      "ima": 3419,
      "vered": 3420,
      "ĠHead": 3421,
      "ĠcheckIs": 3422,
      "ĠPosition": 3423,
      "14159265": 3424,
      "binary": 3425,
      "center": 3426,
      "Ġsubsequence": 3427,
      "000000": 3428,
      "DS": 3429,
      "II": 3430,
      "MST": 3431,
      "PF": 3432,
      "XY": 3433,
      "ĠcountStr": 3434,
      "Ġ59": 3435,
      "unn": 3436,
      "amb": 3437,
      "reak": 3438,
      "ĠfindMinSum": 3439,
      "ĠMaximumSum": 3440,
      "ĠsplitDP": 3441,
      "ĠtailIndices": 3442,
      "Ġequals": 3443,
      "Oct": 3444,
      "base": 3445,
      "Ġlp": 3446,
      "ĠprintSeries": 3447,
      "Ġallocation": 3448,
      "ĠsquareSum": 3449,
      "Cl": 3450,
      "LO": 3451,
      "Opt": 3452,
      "heap": 3453,
      "icked": 3454,
      "ĠminRemovals": 3455,
      "SumRec": 3456,
      "rot": 3457,
      "Ġ75": 3458,
      "update": 3459,
      "Ġalternate": 3460,
      "ĠfindMedian": 3461,
      "Ġcompared": 3462,
      "Ġhorizontal": 3463,
      "ĠGiven": 3464,
      "Ġqt": 3465,
      "Ġcomposite": 3466,
      "70": 3467,
      "ile": 3468,
      "ses": 3469,
      "rect": 3470,
      "ĠfindLen": 3471,
      "ivalent": 3472,
      "Ġiterator": 3473,
      "ibonacci": 3474,
      "Ġswaps": 3475,
      "Ġthrows": 3476,
      "ĠmaxWeight": 3477,
      "dentical": 3478,
      "half": 3479,
      "ĠmaxP": 3480,
      "Helper": 3481,
      "inRange": 3482,
      "Ġpari": 3483,
      "dedge": 3484,
      "Ġloop": 3485,
      "ĠminHeap": 3486,
      "ulated": 3487,
      "ĠnodeStack": 3488,
      "ĠParse": 3489,
      "ĠcntWays": 3490,
      "ĠcntFor": 3491,
      "Distant": 3492,
      "ĠdivSum": 3493,
      "Log": 3494,
      "Ġlarge": 3495,
      "ĠprintString": 3496,
      "Ġexpected": 3497,
      "Ġunion": 3498,
      "factorial": 3499,
      "Dro": 3500,
      "OU": 3501,
      "ĠcountElements": 3502,
      "ĠcountOnes": 3503,
      "Ġ53": 3504,
      "Repeated": 3505,
      "Deci": 3506,
      "yclic": 3507,
      "Ġsuper": 3508,
      "ĠCompare": 3509,
      "uate": 3510,
      "alle": 3511,
      "Ġbb": 3512,
      "Ġbig": 3513,
      "Ġlpf": 3514,
      "ĠcountSubarrays": 3515,
      "Ġ!==": 3516,
      "ĠfindArray": 3517,
      "ĠRoot": 3518,
      "ĠremoveDuplicates": 3519,
      "Ġcombined": 3520,
      "difference": 3521,
      "ĠinsertionSort": 3522,
      "Cell": 3523,
      "Nee": 3524,
      "Width": 3525,
      "crib": 3526,
      "rmstrong": 3527,
      "top": 3528,
      "umns": 3529,
      "Ġequ": 3530,
      "ĠCentered": 3531,
      "Ġcolumns": 3532,
      "Ġseen": 3533,
      "Seen": 3534,
      "WithMax": 3535,
      "ĠconstructTree": 3536,
      "ĠobstPosx": 3537,
      "Ġ2147483647": 3538,
      "Needed": 3539,
      "cribed": 3540,
      "Ġcum": 3541,
      "ĠTriangle": 3542,
      "Ġmirror": 3543,
      "Far": 3544,
      "oFar": 3545,
      "Ġ`": 3546,
      "Ġmed": 3547,
      "reat": 3548,
      "Ġindeg": 3549,
      "ĠmaxCost": 3550,
      "Ġnewstr": 3551,
      "Ġgen": 3552,
      "ĠrightMin": 3553,
      "ĠfindPermutation": 3554,
      "Ġcharacters": 3555,
      "Ġ85": 3556,
      "ĠcntNum": 3557,
      "Ġcols": 3558,
      "subtree": 3559,
      "PerfectCube": 3560,
      "Rectangle": 3561,
      "Ġrhs": 3562,
      "Ġaddedge": 3563,
      "ĠknapSack": 3564,
      "memset": 3565,
      "Visited": 3566,
      "ĠprefixCnt": 3567,
      "ĠCountPairs": 3568,
      "Ġcbrt": 3569,
      "oubly": 3570,
      "Calc": 3571,
      "Coprime": 3572,
      "Uns": 3573,
      "tes": 3574,
      "Ġrp": 3575,
      "icks": 3576,
      "ĠstrEle": 3577,
      "ĠAns": 3578,
      "ĠsizeOf": 3579,
      "Ġ66": 3580,
      "Ġrepeated": 3581,
      "ĠrowSum": 3582,
      "Coins": 3583,
      "WithSum": 3584,
      "remainder": 3585,
      "ĠCONS": 3586,
      "ĠDistance": 3587,
      "cestor": 3588,
      "olygon": 3589,
      "series": 3590,
      "ĠminLength": 3591,
      "ĠPower": 3592,
      "ĠNUM": 3593,
      "Arrange": 3594,
      "Ġintervals": 3595,
      "private": 3596,
      "arnings": 3597,
      "Upt": 3598,
      "Ġnxp": 3599,
      "ory": 3600,
      "icient": 3601,
      "ĠSpeed": 3602,
      "sel": 3603,
      "ĠcountRec": 3604,
      "Ġwin": 3605,
      "teen": 3606,
      "Ġqr": 3607,
      "ircular": 3608,
      "Ġdeterm": 3609,
      "Upto": 3610,
      "Merge": 3611,
      "Tmp": 3612,
      "ron": 3613,
      "Ġbottom": 3614,
      "Ġmaxele": 3615,
      "Ġsegreg": 3616,
      "IG": 3617,
      "ormal": 3618,
      "den": 3619,
      "ĠcountMax": 3620,
      "Ġ44": 3621,
      "Ġ47": 3622,
      "Ġhist": 3623,
      "ĠminTime": 3624,
      "SubSequence": 3625,
      "Ġexpression": 3626,
      "Stk": 3627,
      "ucas": 3628,
      "ĠsegmentTree": 3629,
      "ĠfindNumberOf": 3630,
      "Split": 3631,
      "ghi": 3632,
      "Ġcorner": 3633,
      "ĠSol": 3634,
      "Ġlat": 3635,
      "Ġhd": 3636,
      "ĠminMax": 3637,
      "ĠtotalCost": 3638,
      "ookup": 3639,
      "column": 3640,
      "Ġacc": 3641,
      "Ġoctal": 3642,
      "Big": 3643,
      "Greatest": 3644,
      "Palindromes": 3645,
      "rium": 3646,
      "Ġtens": 3647,
      "Ġxy": 3648,
      "Ġmincost": 3649,
      "ĠFor": 3650,
      "ĠsetBit": 3651,
      "MinIdx": 3652,
      "ands": 3653,
      "ĠcountPairsWith": 3654,
      "Ġbuy": 3655,
      "Elem": 3656,
      "Solutions": 3657,
      "ĠcellCol": 3658,
      "Groups": 3659,
      "PlusN": 3660,
      "ĠVal": 3661,
      "ĠmPlusN": 3662,
      "ĠfindPrime": 3663,
      "uts": 3664,
      "Ġcombination": 3665,
      "Ġoperation": 3666,
      "TheSeries": 3667,
      "ĠcellRow": 3668,
      "ĠisPresent": 3669,
      "Overlap": 3670,
      "SC": 3671,
      "tin": 3672,
      "ĠSe": 3673,
      "ample": 3674,
      "ĠDis": 3675,
      "Ġtrailing": 3676,
      "ramid": 3677,
      "Ġextras": 3678,
      "Ġoptimal": 3679,
      "ertices": 3680,
      "qr": 3681,
      "vol": 3682,
      "less": 3683,
      "substring": 3684,
      "Ġsqr": 3685,
      "66": 3686,
      "Fit": 3687,
      "buil": 3688,
      "inomial": 3689,
      "ĠcountInRange": 3690,
      "aces": 3691,
      "ĠfindLength": 3692,
      "ĠcurrIndex": 3693,
      "ĠPalindrome": 3694,
      "Ġtransform": 3695,
      "Ġ\\\\": 3696,
      "group": 3697,
      "popcount": 3698,
      "builtin": 3699,
      "ĠprintPairs": 3700,
      "ĠprintPattern": 3701,
      "Ġ105": 3702,
      "ĠtempArr": 3703,
      "ĠcurrMax": 3704,
      "ĠInc": 3705,
      "Arrangement": 3706,
      "ternating": 3707,
      "ĠDelete": 3708,
      "unsigned": 3709,
      "Dgt": 3710,
      "kip": 3711,
      "led": 3712,
      "etr": 3713,
      "inted": 3714,
      "ĠisH": 3715,
      "ĠisFibonacci": 3716,
      "ĠgetAs": 3717,
      "Ġ78": 3718,
      "ĠRound": 3719,
      "ages": 3720,
      "uples": 3721,
      "ĠSubset": 3722,
      "Ġpainted": 3723,
      "ĠgetAsInt": 3724,
      "Iter": 3725,
      "cestors": 3726,
      "Ġbreadth": 3727,
      "Average": 3728,
      "ET": 3729,
      "UN": 3730,
      "Ġfir": 3731,
      "Ġbri": 3732,
      "igZag": 3733,
      "ĠCell": 3734,
      "ĠResult": 3735,
      "Counts": 3736,
      "PrimeDivisors": 3737,
      "Required": 3738,
      "ĠdivCount": 3739,
      "ĠsieveOfEratosthenes": 3740,
      "Ġmsis": 3741,
      "Parts": 3742,
      "Occurrence": 3743,
      "ĠmaxLimit": 3744,
      "Drop": 3745,
      "Is": 3746,
      "uper": 3747,
      "Ġlev": 3748,
      "Ġgood": 3749,
      "ĠproductOf": 3750,
      "bsDiff": 3751,
      "adec": 3752,
      "Ġdate": 3753,
      "ĠfindDigits": 3754,
      "ĠoddFreq": 3755,
      "ĠcurrentMax": 3756,
      "ALS": 3757,
      "ĠelementAt": 3758,
      "ardNo": 3759,
      "awn": 3760,
      "Anagrams": 3761,
      "range": 3762,
      "Ġpy": 3763,
      "Ġhr": 3764,
      "ĠtotalCount": 3765,
      "Ġselling": 3766,
      "ĠPriorityQueue": 3767,
      "ĠsellingPrice": 3768,
      "Sund": 3769,
      "parent": 3770,
      "Ġsurface": 3771,
      "Ġdot": 3772,
      "aram": 3773,
      "Ġtan": 3774,
      "Ġlr": 3775,
      "ĠprintMin": 3776,
      "ĠprintSolution": 3777,
      "ĠisE": 3778,
      "ĠfindElements": 3779,
      "ĠBase": 3780,
      "ollow": 3781,
      "Into": 3782,
      "Expression": 3783,
      "Insertions": 3784,
      "ymm": 3785,
      "Ġalphabets": 3786,
      "Sundaram": 3787,
      "used": 3788,
      "ĠSize": 3789,
      "ĠMove": 3790,
      "ĠminimumMoves": 3791,
      "Ġpatt": 3792,
      "flip": 3793,
      "Ġcosx": 3794,
      "OP": 3795,
      "Sign": 3796,
      "vw": 3797,
      "Ġintval": 3798,
      "Ġarrange": 3799,
      "onal": 3800,
      "ars": 3801,
      "Ġlg": 3802,
      "Ġlamb": 3803,
      "ĠfindPrefix": 3804,
      "Ġqj": 3805,
      "ĠnextIndex": 3806,
      "aves": 3807,
      "ĠcntOne": 3808,
      "Substr": 3809,
      "Ġ128": 3810,
      "Ġ1005": 3811,
      "undant": 3812,
      "Rectangles": 3813,
      "Ġ12345": 3814,
      "Removed": 3815,
      "Ġcommand": 3816,
      "Ġlambda": 3817,
      "gor": 3818,
      "hes": 3819,
      "Ġspeed": 3820,
      "Ġge": 3821,
      "ĠDouble": 3822,
      "Ġsides": 3823,
      "Ġlinked": 3824,
      "Ġobjects": 3825,
      "gorith": 3826,
      "multip": 3827,
      "Ġxpos": 3828,
      "ĠprintRepeating": 3829,
      "thm": 3830,
      "ĠminCount": 3831,
      "Ġypos": 3832,
      "ĠfindX": 3833,
      "ĠfindValue": 3834,
      "ĠfindArea": 3835,
      "ĠgetNth": 3836,
      "ĠsortBy": 3837,
      "till": 3838,
      "Req": 3839,
      "ĠfindMaxLen": 3840,
      "PowerSum": 3841,
      "Remainder": 3842,
      "Except": 3843,
      "NonRepeating": 3844,
      "Ġsemi": 3845,
      "ĠNeg": 3846,
      "Ġbnum": 3847,
      "ĠcountFreq": 3848,
      "ĠmaxSub": 3849,
      "ĠmaxXOR": 3850,
      "Ġaba": 3851,
      "ĠsortArray": 3852,
      "Ġselected": 3853,
      "ĠLevel": 3854,
      "Items": 3855,
      "Using": 3856,
      "gy": 3857,
      "not": 3858,
      "Ġmm": 3859,
      "etter": 3860,
      "atur": 3861,
      "ĠsumArr": 3862,
      "ĠgetFirst": 3863,
      "cepted": 3864,
      "ĠcheckA": 3865,
      "Ġswapped": 3866,
      "ForPattern": 3867,
      "BITree": 3868,
      "Ġrd": 3869,
      "ĠmaxSubarraySum": 3870,
      "ĠsumN": 3871,
      "ĠminChanges": 3872,
      "ĠfindV": 3873,
      "ĠfindClosest": 3874,
      "Ġabcde": 3875,
      "Ġlines": 3876,
      "Ġevaluate": 3877,
      "76": 3878,
      "BB": 3879,
      "Trees": 3880,
      "Ġfilter": 3881,
      "Ġstoi": 3882,
      "Ġtreas": 3883,
      "Ġtake": 3884,
      "ĠfindProduct": 3885,
      "osit": 3886,
      "Ġrest": 3887,
      "NumberForPattern": 3888,
      "Rightmost": 3889,
      "ĠOriginal": 3890,
      "oodFill": 3891,
      "ĠsuffSum": 3892,
      "ĠcommonPrefix": 3893,
      "6789": 3894,
      "Division": 3895,
      "cessor": 3896,
      "Ġtreasure": 3897,
      "Ġdictionary": 3898,
      "Ġbal": 3899,
      "unique": 3900,
      "ĠgetPairs": 3901,
      "ĠPerimeter": 3902,
      "ĠstartIndex": 3903,
      "ĠQi": 3904,
      "Ġlli": 3905,
      "Majority": 3906,
      "osen": 3907,
      "Target": 3908,
      "ie": 3909,
      "armon": 3910,
      "ĠtSum": 3911,
      "Ġln": 3912,
      "ubble": 3913,
      "ĠcountOccurrences": 3914,
      "Ġmaxv": 3915,
      "uent": 3916,
      "ĠminDifference": 3917,
      "ĠfindSubsequence": 3918,
      "ĠfindPosition": 3919,
      "Ġ61": 3920,
      "SumEqual": 3921,
      "ives": 3922,
      "ptagonal": 3923,
      "remove": 3924,
      "SortedArray": 3925,
      "hedral": 3926,
      "armonic": 3927,
      "pq": 3928,
      "Ġnc": 3929,
      "Ġmobius": 3930,
      "ĠcountR": 3931,
      "ĠcountNon": 3932,
      "ĠmaxIndex": 3933,
      "ĠminJumps": 3934,
      "ĠleftMax": 3935,
      "ĠfindGCD": 3936,
      "ĠBalanced": 3937,
      "sets": 3938,
      "ircum": 3939,
      "Ġdirection": 3940,
      "zeroes": 3941,
      "Ġoption": 3942,
      "ĠrandomNums": 3943,
      "operation": 3944,
      "Ġstrip": 3945,
      "SUM": 3946,
      "ting": 3947,
      "Ġpent": 3948,
      "Ġxp": 3949,
      "ĠmaxD": 3950,
      "ĠmaxDist": 3951,
      "Ġgreatest": 3952,
      "ache": 3953,
      "ĠnumTo": 3954,
      "ĠnumLen": 3955,
      "ĠcntOdd": 3956,
      "igital": 3957,
      "ĠisPair": 3958,
      "Change": 3959,
      "Ġconsonant": 3960,
      "Rep": 3961,
      "ised": 3962,
      "Ġweights": 3963,
      "4545": 3964,
      "DivBy": 3965,
      "unning": 3966,
      "sign": 3967,
      "Ġcd": 3968,
      "ummy": 3969,
      "ĠfindC": 3970,
      "ĠcheckS": 3971,
      "BitsSet": 3972,
      "ĠpreProcess": 3973,
      "56": 3974,
      "77": 3975,
      "Pi": 3976,
      "SS": 3977,
      "Ġtx": 3978,
      "Ġbi": 3979,
      "Ġlthread": 3980,
      "ific": 3981,
      "Ġ46": 3982,
      "lice": 3983,
      "Ġyy": 3984,
      "ĠfindElement": 3985,
      "ĠDest": 3986,
      "Ġ121": 3987,
      "ĠprefixArray": 3988,
      "ĠlargestNumber": 3989,
      "ĠlookFor": 3990,
      "uffle": 3991,
      "cosi": 3992,
      "ĠseriesSum": 3993,
      "RandomNums": 3994,
      "SCII": 3995,
      "ĠSp": 3996,
      "Ġder": 3997,
      "ĠNoOf": 3998,
      "lectionSort": 3999,
      "hesis": 4000,
      "eigh": 4001,
      "morphic": 4002,
      "ov": 4003,
      "sWith": 4004,
      "lex": 4005,
      "Ġps": 4006,
      "Ġlvl": 4007,
      "ĠprintMat": 4008,
      "ulation": 4009,
      "ilib": 4010,
      "osing": 4011,
      "ĠcurrX": 4012,
      "ĠgetNext": 4013,
      "ĠDiagonal": 4014,
      "Ġ122": 4015,
      "ĠdistSq": 4016,
      "ĠcanMake": 4017,
      "ilibrium": 4018,
      "Collections": 4019,
      "ust": 4020,
      "Ġnumberof": 4021,
      "ĠEdge": 4022,
      "ĠnoOfRandomNums": 4023,
      "Ġextract": 4024,
      "ĠisFull": 4025,
      "Ġtraverse": 4026,
      "21": 4027,
      "ier": 4028,
      "pent": 4029,
      "ytes": 4030,
      "inant": 4031,
      "Ġcache": 4032,
      "atis": 4033,
      "essed": 4034,
      "ĠmaxSubarray": 4035,
      "Ġ102": 4036,
      "ĠfindDistance": 4037,
      "ocal": 4038,
      "ĠgetLevel": 4039,
      "ĠfloodFill": 4040,
      "ĠRank": 4041,
      "Ordered": 4042,
      "Rotated": 4043,
      "Ġencrypt": 4044,
      "Intersect": 4045,
      "ĠobstPosy": 4046,
      "ĠDisplay": 4047,
      "atisf": 4048,
      "Base": 4049,
      "New": 4050,
      "Shift": 4051,
      "do": 4052,
      "Ġpeak": 4053,
      "Ġpawn": 4054,
      "ĠisEnd": 4055,
      "eader": 4056,
      "ĠFibonacci": 4057,
      "ĠprimeFact": 4058,
      "Ġmodul": 4059,
      "gorithm": 4060,
      "Mult": 4061,
      "Small": 4062,
      "ls": 4063,
      "etail": 4064,
      "Ġhave": 4065,
      "ĠrangeSum": 4066,
      "ape": 4067,
      "Poss": 4068,
      "ĠgetMinSteps": 4069,
      "ĠcountSmaller": 4070,
      "elem": 4071,
      "Ġrbi": 4072,
      "Ġrbj": 4073,
      "ĠquickSort": 4074,
      "icographically": 4075,
      "MP": 4076,
      "copy": 4077,
      "ff": 4078,
      "Ġstation": 4079,
      "Ġtc": 4080,
      "Ġeq": 4081,
      "ĠcountPermutations": 4082,
      "ĠBr": 4083,
      "Function": 4084,
      "gp": 4085,
      "oard": 4086,
      "Ġbt": 4087,
      "Ġbalanced": 4088,
      "ĠcountQuadr": 4089,
      "Ġhh": 4090,
      "Ġharr": 4091,
      "ĠminB": 4092,
      "ĠfindK": 4093,
      "SubString": 4094,
      "ordin": 4095
    },
    "merges": [
      [
        "Ġ",
        "i"
      ],
      [
        "Ġ",
        ";"
      ],
      [
        "Ġ",
        "("
      ],
      [
        "Ġ",
        ")"
      ],
      [
        "Ġ",
        "="
      ],
      [
        "Ġ",
        ","
      ],
      [
        "n",
        "t"
      ],
      [
        "Ġ",
        "]"
      ],
      [
        "Ġ",
        "["
      ],
      [
        "Ġ",
        "n"
      ],
      [
        "Ġ",
        "1"
      ],
      [
        "Ġ",
        "a"
      ],
      [
        "Ġ",
        "}"
      ],
      [
        "Ġ",
        "{"
      ],
      [
        "Ġi",
        "nt"
      ],
      [
        "Ġ",
        "s"
      ],
      [
        "Ġ",
        "Ġ"
      ],
      [
        "Ġ",
        "."
      ],
      [
        "Ġ",
        "Ċ"
      ],
      [
        "Ġ",
        "+"
      ],
      [
        "Ġ",
        "r"
      ],
      [
        "i",
        "n"
      ],
      [
        "Ġ",
        "0"
      ],
      [
        "l",
        "e"
      ],
      [
        "Ġ",
        "c"
      ],
      [
        "r",
        "r"
      ],
      [
        "Ġ",
        "\""
      ],
      [
        "Ġ",
        "m"
      ],
      [
        "Ġ",
        "p"
      ],
      [
        "Ġ",
        "<"
      ],
      [
        "Ġ",
        "-"
      ],
      [
        "Ġ",
        "f"
      ],
      [
        "o",
        "r"
      ],
      [
        "e",
        "t"
      ],
      [
        "a",
        "t"
      ],
      [
        "Ġa",
        "rr"
      ],
      [
        "Ġs",
        "t"
      ],
      [
        "s",
        "t"
      ],
      [
        "u",
        "r"
      ],
      [
        "u",
        "m"
      ],
      [
        "d",
        "e"
      ],
      [
        "Ġ",
        "j"
      ],
      [
        "ur",
        "n"
      ],
      [
        "r",
        "i"
      ],
      [
        "et",
        "urn"
      ],
      [
        "Ġ",
        "N"
      ],
      [
        "o",
        "u"
      ],
      [
        "Ġ",
        "$"
      ],
      [
        "Ġ",
        "2"
      ],
      [
        "Ġr",
        "eturn"
      ],
      [
        "i",
        "c"
      ],
      [
        "Ġ",
        "le"
      ],
      [
        "Ġi",
        "f"
      ],
      [
        "o",
        "n"
      ],
      [
        "Ġ+",
        "+"
      ],
      [
        "Ġ",
        "d"
      ],
      [
        "Ġ",
        "v"
      ],
      [
        "Ġ",
        ":"
      ],
      [
        "Ġ",
        "S"
      ],
      [
        "Ġ=",
        "="
      ],
      [
        "in",
        "g"
      ],
      [
        "s",
        "e"
      ],
      [
        "a",
        "r"
      ],
      [
        "Ġ",
        "t"
      ],
      [
        "Ġm",
        "a"
      ],
      [
        "Ġ",
        "*"
      ],
      [
        "Ġf",
        "or"
      ],
      [
        "â",
        "ĸ"
      ],
      [
        "Ġ",
        "e"
      ],
      [
        "Ġ",
        "âĸ"
      ],
      [
        "Ġâĸ",
        "ģ"
      ],
      [
        "e",
        "r"
      ],
      [
        "a",
        "l"
      ],
      [
        "e",
        "s"
      ],
      [
        "Ġ",
        ">"
      ],
      [
        "Ġ",
        "M"
      ],
      [
        "Ġ",
        "b"
      ],
      [
        "ĠĠ",
        "Ġ"
      ],
      [
        "e",
        "m"
      ],
      [
        "ĠĠ",
        "ĠĠĠ"
      ],
      [
        "r",
        "e"
      ],
      [
        "Ġc",
        "ou"
      ],
      [
        "at",
        "ic"
      ],
      [
        "Ġ",
        "l"
      ],
      [
        "c",
        "t"
      ],
      [
        "n",
        "g"
      ],
      [
        "Ġ",
        "k"
      ],
      [
        "i",
        "d"
      ],
      [
        "Ġ",
        "'"
      ],
      [
        "Ġp",
        "ri"
      ],
      [
        "o",
        "de"
      ],
      [
        "Ġ",
        "x"
      ],
      [
        "Ġn",
        "e"
      ],
      [
        "Ġst",
        "r"
      ],
      [
        "i",
        "f"
      ],
      [
        "Ġ",
        "3"
      ],
      [
        "i",
        "g"
      ],
      [
        "u",
        "b"
      ],
      [
        "Ġcou",
        "nt"
      ],
      [
        "Ġst",
        "atic"
      ],
      [
        "Ġpri",
        "nt"
      ],
      [
        "Ġi",
        "n"
      ],
      [
        "o",
        "o"
      ],
      [
        "i",
        "t"
      ],
      [
        "Ġ",
        "A"
      ],
      [
        "n",
        "s"
      ],
      [
        "t",
        "r"
      ],
      [
        "l",
        "se"
      ],
      [
        "Ġma",
        "x"
      ],
      [
        "Ġ",
        "w"
      ],
      [
        "o",
        "id"
      ],
      [
        "u",
        "e"
      ],
      [
        "Ġne",
        "w"
      ],
      [
        "t",
        "e"
      ],
      [
        "i",
        "on"
      ],
      [
        "Ġ",
        "/"
      ],
      [
        "t",
        "h"
      ],
      [
        "Ġv",
        "oid"
      ],
      [
        "ig",
        "h"
      ],
      [
        "u",
        "s"
      ],
      [
        "Ġa",
        "ns"
      ],
      [
        "Ġe",
        "lse"
      ],
      [
        "i",
        "nt"
      ],
      [
        "a",
        "s"
      ],
      [
        "Ġ",
        "4"
      ],
      [
        "Ġ+",
        "="
      ],
      [
        "Ġ",
        "C"
      ],
      [
        "Ġ",
        "h"
      ],
      [
        "tr",
        "ing"
      ],
      [
        "Ġ<",
        "<"
      ],
      [
        "ng",
        "th"
      ],
      [
        "e",
        "nt"
      ],
      [
        "Ġ1",
        "0"
      ],
      [
        "Ġ",
        "_"
      ],
      [
        "Ġle",
        "t"
      ],
      [
        "ri",
        "te"
      ],
      [
        "Ġ",
        "%"
      ],
      [
        "Ġs",
        "um"
      ],
      [
        "n",
        "d"
      ],
      [
        "l",
        "ic"
      ],
      [
        "y",
        "st"
      ],
      [
        "yst",
        "em"
      ],
      [
        "ub",
        "lic"
      ],
      [
        "oo",
        "t"
      ],
      [
        "Ġ",
        "g"
      ],
      [
        "a",
        "y"
      ],
      [
        "Ġ",
        "5"
      ],
      [
        "ĠS",
        "ystem"
      ],
      [
        "igh",
        "t"
      ],
      [
        "Ġma",
        "in"
      ],
      [
        "Ġr",
        "oot"
      ],
      [
        "o",
        "w"
      ],
      [
        "Ġc",
        "h"
      ],
      [
        "Ġ<",
        "="
      ],
      [
        "ĠS",
        "tring"
      ],
      [
        "at",
        "h"
      ],
      [
        "f",
        "or"
      ],
      [
        "h",
        "i"
      ],
      [
        "Ġ",
        "!"
      ],
      [
        "Ġ",
        "G"
      ],
      [
        "Ġ",
        "&"
      ],
      [
        "f",
        "t"
      ],
      [
        "Ġr",
        "es"
      ],
      [
        "Ġd",
        "p"
      ],
      [
        "z",
        "e"
      ],
      [
        "in",
        "d"
      ],
      [
        "as",
        "s"
      ],
      [
        "l",
        "ass"
      ],
      [
        "Ġm",
        "in"
      ],
      [
        "i",
        "ze"
      ],
      [
        "us",
        "ing"
      ],
      [
        "m",
        "e"
      ],
      [
        "Ġ",
        "y"
      ],
      [
        "Ġ",
        "L"
      ],
      [
        "ct",
        "ion"
      ],
      [
        "a",
        "ng"
      ],
      [
        "u",
        "l"
      ],
      [
        "Ġle",
        "ft"
      ],
      [
        "Ġr",
        "ight"
      ],
      [
        "a",
        "c"
      ],
      [
        "u",
        "n"
      ],
      [
        "em",
        "p"
      ],
      [
        "0",
        "0"
      ],
      [
        "Ġ!",
        "="
      ],
      [
        "hi",
        "le"
      ],
      [
        "Ġt",
        "emp"
      ],
      [
        "v",
        "e"
      ],
      [
        "Ġle",
        "ngth"
      ],
      [
        "Ġi",
        "s"
      ],
      [
        "i",
        "m"
      ],
      [
        "i",
        "r"
      ],
      [
        "Ġn",
        "um"
      ],
      [
        "Ġf",
        "ind"
      ],
      [
        "F",
        "G"
      ],
      [
        "ĠG",
        "FG"
      ],
      [
        "ang",
        "e"
      ],
      [
        "Ġc",
        "lass"
      ],
      [
        "ĠM",
        "ath"
      ],
      [
        "un",
        "ction"
      ],
      [
        "Ġs",
        "ize"
      ],
      [
        "ou",
        "t"
      ],
      [
        "i",
        "l"
      ],
      [
        "ĠN",
        "ode"
      ],
      [
        "Ġ",
        "K"
      ],
      [
        "Ġa",
        "r"
      ],
      [
        "or",
        "t"
      ],
      [
        "e",
        "c"
      ],
      [
        "rr",
        "ay"
      ],
      [
        "i",
        "st"
      ],
      [
        "d",
        "d"
      ],
      [
        "o",
        "c"
      ],
      [
        "de",
        "f"
      ],
      [
        "e",
        "a"
      ],
      [
        "Ġ",
        "out"
      ],
      [
        "Ġr",
        "ange"
      ],
      [
        "Ġ",
        "W"
      ],
      [
        "Ġ&",
        "&"
      ],
      [
        "Ġle",
        "n"
      ],
      [
        "Ġp",
        "ublic"
      ],
      [
        "s",
        "o"
      ],
      [
        "Ġ",
        "6"
      ],
      [
        "o",
        "f"
      ],
      [
        "Ġp",
        "re"
      ],
      [
        "Ġ",
        "q"
      ],
      [
        "ĠM",
        "a"
      ],
      [
        "Ġw",
        "hile"
      ],
      [
        "on",
        "so"
      ],
      [
        "onso",
        "le"
      ],
      [
        "ĠW",
        "rite"
      ],
      [
        "it",
        "s"
      ],
      [
        "Ġar",
        "g"
      ],
      [
        "al",
        "se"
      ],
      [
        "o",
        "s"
      ],
      [
        "u",
        "rr"
      ],
      [
        "r",
        "ue"
      ],
      [
        "S",
        "um"
      ],
      [
        "Ġarg",
        "s"
      ],
      [
        "Ġc",
        "o"
      ],
      [
        "Ġcou",
        "t"
      ],
      [
        "ou",
        "nt"
      ],
      [
        "ĠC",
        "onsole"
      ],
      [
        "Ġv",
        "ar"
      ],
      [
        "st",
        "atic"
      ],
      [
        "um",
        "ent"
      ],
      [
        "Ġw",
        "rite"
      ],
      [
        "oc",
        "ument"
      ],
      [
        "a",
        "m"
      ],
      [
        "Ġc",
        "urr"
      ],
      [
        "Ġch",
        "ar"
      ],
      [
        "Ġ",
        "B"
      ],
      [
        "ea",
        "d"
      ],
      [
        "de",
        "x"
      ],
      [
        "u",
        "t"
      ],
      [
        "x",
        "t"
      ],
      [
        "Ġ",
        "using"
      ],
      [
        "Ġd",
        "ocument"
      ],
      [
        "Ġ-",
        ">"
      ],
      [
        "c",
        "l"
      ],
      [
        "Ġe",
        "nd"
      ],
      [
        "Ġg",
        "et"
      ],
      [
        "Ġn",
        "ode"
      ],
      [
        "ct",
        "or"
      ],
      [
        "b",
        "le"
      ],
      [
        "Ġ",
        "I"
      ],
      [
        "N",
        "ode"
      ],
      [
        "Ġh",
        "ead"
      ],
      [
        "u",
        "de"
      ],
      [
        "r",
        "o"
      ],
      [
        "on",
        "g"
      ],
      [
        "Ġ>",
        "="
      ],
      [
        "Ġm",
        "id"
      ],
      [
        "cl",
        "ude"
      ],
      [
        "in",
        "clude"
      ],
      [
        "Ġf",
        "alse"
      ],
      [
        "ac",
        "e"
      ],
      [
        "i",
        "s"
      ],
      [
        "Ġt",
        "rue"
      ],
      [
        "Ġstr",
        "ing"
      ],
      [
        "p",
        "ublic"
      ],
      [
        "Ġ",
        "7"
      ],
      [
        "Ġf",
        "l"
      ],
      [
        "at",
        "a"
      ],
      [
        "Ġne",
        "xt"
      ],
      [
        "f",
        "unction"
      ],
      [
        "e",
        "g"
      ],
      [
        "e",
        "d"
      ],
      [
        "b",
        "er"
      ],
      [
        "a",
        "n"
      ],
      [
        "Ġ",
        "X"
      ],
      [
        "Ġst",
        "d"
      ],
      [
        "Ġd",
        "ata"
      ],
      [
        "p",
        "ace"
      ],
      [
        "am",
        "es"
      ],
      [
        "p",
        "ort"
      ],
      [
        "Ġn",
        "ames"
      ],
      [
        "Ġ",
        "8"
      ],
      [
        "Ġnames",
        "pace"
      ],
      [
        "Ġ",
        "T"
      ],
      [
        "Ġ",
        "9"
      ],
      [
        "Ġ",
        "P"
      ],
      [
        "Ġ",
        "?"
      ],
      [
        "Ġ",
        "R"
      ],
      [
        "ĠMa",
        "in"
      ],
      [
        "o",
        "t"
      ],
      [
        "O",
        "f"
      ],
      [
        "A",
        "X"
      ],
      [
        "Ġl",
        "ong"
      ],
      [
        "in",
        "e"
      ],
      [
        "st",
        "d"
      ],
      [
        "e",
        "n"
      ],
      [
        "b",
        "its"
      ],
      [
        "ul",
        "t"
      ],
      [
        "re",
        "a"
      ],
      [
        "Ġ",
        "Y"
      ],
      [
        "o",
        "l"
      ],
      [
        "le",
        "t"
      ],
      [
        "a",
        "ir"
      ],
      [
        "a",
        "v"
      ],
      [
        "Ġc",
        "nt"
      ],
      [
        "Ġv",
        "al"
      ],
      [
        "Ġprint",
        "l"
      ],
      [
        "+",
        "+"
      ],
      [
        "re",
        "e"
      ],
      [
        "c",
        "h"
      ],
      [
        "Ġprintl",
        "n"
      ],
      [
        "++",
        "."
      ],
      [
        "std",
        "c"
      ],
      [
        "a",
        "p"
      ],
      [
        "re",
        "q"
      ],
      [
        "Ġ-",
        "-"
      ],
      [
        "ar",
        "t"
      ],
      [
        "r",
        "eturn"
      ],
      [
        "e",
        "ngth"
      ],
      [
        "ĠM",
        "AX"
      ],
      [
        "N",
        "E"
      ],
      [
        "av",
        "a"
      ],
      [
        "Ġin",
        "dex"
      ],
      [
        "Ġj",
        "ava"
      ],
      [
        "Ġsize",
        "of"
      ],
      [
        "ĠA",
        "rray"
      ],
      [
        "Ġm",
        "at"
      ],
      [
        "st",
        "r"
      ],
      [
        "im",
        "um"
      ],
      [
        "us",
        "h"
      ],
      [
        "r",
        "t"
      ],
      [
        "e",
        "y"
      ],
      [
        "a",
        "g"
      ],
      [
        "L",
        "ine"
      ],
      [
        "a",
        "x"
      ],
      [
        "c",
        "e"
      ],
      [
        "ir",
        "st"
      ],
      [
        "im",
        "port"
      ],
      [
        "Ġ",
        "o"
      ],
      [
        "ĠWrite",
        "Line"
      ],
      [
        "at",
        "e"
      ],
      [
        "u",
        "ct"
      ],
      [
        "s",
        "um"
      ],
      [
        "N",
        "um"
      ],
      [
        "Ġp",
        "ush"
      ],
      [
        "ul",
        "l"
      ],
      [
        "Ġp",
        "ow"
      ],
      [
        "Ġb",
        "oo"
      ],
      [
        "Ġ",
        "u"
      ],
      [
        "Ġp",
        "os"
      ],
      [
        "Ġn",
        "ull"
      ],
      [
        "Ġf",
        "unction"
      ],
      [
        "A",
        "t"
      ],
      [
        "ec",
        "k"
      ],
      [
        "Ġnew",
        "Node"
      ],
      [
        "Ġres",
        "ult"
      ],
      [
        "ĠL",
        "ength"
      ],
      [
        "S",
        "ub"
      ],
      [
        "ĠI",
        "nt"
      ],
      [
        "g",
        "e"
      ],
      [
        "eg",
        "er"
      ],
      [
        "Ġ_",
        "_"
      ],
      [
        "Ġf",
        "req"
      ],
      [
        "m",
        "p"
      ],
      [
        "Ġf",
        "irst"
      ],
      [
        "i",
        "x"
      ],
      [
        "Ġb",
        "rea"
      ],
      [
        "V",
        "al"
      ],
      [
        "Ġbrea",
        "k"
      ],
      [
        "Ġa",
        "dd"
      ],
      [
        "Ġst",
        "art"
      ],
      [
        "Ġfl",
        "o"
      ],
      [
        "a",
        "me"
      ],
      [
        "Ġch",
        "eck"
      ],
      [
        "Ġ",
        "F"
      ],
      [
        "i",
        "v"
      ],
      [
        "ĠInt",
        "eger"
      ],
      [
        "m",
        "ent"
      ],
      [
        "ve",
        "n"
      ],
      [
        "Ġpri",
        "me"
      ],
      [
        "e",
        "ctor"
      ],
      [
        "Ġpre",
        "v"
      ],
      [
        "o",
        "d"
      ],
      [
        "f",
        "ix"
      ],
      [
        "A",
        "rray"
      ],
      [
        "ou",
        "ble"
      ],
      [
        "Ġ",
        "D"
      ],
      [
        "Ġl",
        "ow"
      ],
      [
        "e",
        "l"
      ],
      [
        "q",
        "u"
      ],
      [
        "ri",
        "me"
      ],
      [
        "_",
        "_"
      ],
      [
        "on",
        "d"
      ],
      [
        "ac",
        "k"
      ],
      [
        "at",
        "ion"
      ],
      [
        "p",
        "e"
      ],
      [
        "if",
        "f"
      ],
      [
        "Ġk",
        "ey"
      ],
      [
        "o",
        "st"
      ],
      [
        "Ġs",
        "ec"
      ],
      [
        "Ġr",
        "e"
      ],
      [
        "le",
        "ment"
      ],
      [
        "Ġ",
        "or"
      ],
      [
        "C",
        "ount"
      ],
      [
        "v",
        "er"
      ],
      [
        "e",
        "lse"
      ],
      [
        "n",
        "ame"
      ],
      [
        "Ġsec",
        "ond"
      ],
      [
        "Ġ",
        "de"
      ],
      [
        "ut",
        "il"
      ],
      [
        "Ġm",
        "p"
      ],
      [
        "Ġd",
        "ouble"
      ],
      [
        "ig",
        "it"
      ],
      [
        "Ġ",
        "util"
      ],
      [
        "Ġis",
        "P"
      ],
      [
        "as",
        "h"
      ],
      [
        "Ġ",
        "z"
      ],
      [
        "Ġa",
        "b"
      ],
      [
        "Ġ1",
        "2"
      ],
      [
        "a",
        "st"
      ],
      [
        "Ġ",
        "def"
      ],
      [
        "M",
        "ax"
      ],
      [
        "ro",
        "d"
      ],
      [
        "Ġh",
        "igh"
      ],
      [
        "Ġs",
        "ub"
      ],
      [
        "S",
        "tring"
      ],
      [
        "ot",
        "al"
      ],
      [
        "c",
        "d"
      ],
      [
        "Ġ10",
        "00"
      ],
      [
        "c",
        "ount"
      ],
      [
        "I",
        "n"
      ],
      [
        "Ġarr",
        "ay"
      ],
      [
        "Ġa",
        "nd"
      ],
      [
        "w",
        "hile"
      ],
      [
        "ch",
        "o"
      ],
      [
        "Ġ",
        "V"
      ],
      [
        "Ġe",
        "cho"
      ],
      [
        "ar",
        "y"
      ],
      [
        "Ġp",
        "ar"
      ],
      [
        "a",
        "ctor"
      ],
      [
        "Ġm",
        "od"
      ],
      [
        "Ġco",
        "l"
      ],
      [
        "Ġ",
        "Q"
      ],
      [
        "v",
        "ar"
      ],
      [
        "Ġchar",
        "At"
      ],
      [
        "e",
        "k"
      ],
      [
        "Ġboo",
        "l"
      ],
      [
        "on",
        "e"
      ],
      [
        "Ġt",
        "ree"
      ],
      [
        "L",
        "I"
      ],
      [
        "L",
        "ist"
      ],
      [
        "Num",
        "ber"
      ],
      [
        "a",
        "ct"
      ],
      [
        "T",
        "R"
      ],
      [
        "ĠN",
        "o"
      ],
      [
        "v",
        "al"
      ],
      [
        "Ġs",
        "et"
      ],
      [
        "p",
        "er"
      ],
      [
        "q",
        "ue"
      ],
      [
        "LI",
        "NE"
      ],
      [
        "ĠS",
        "TR"
      ],
      [
        "W",
        "LINE"
      ],
      [
        "NE",
        "WLINE"
      ],
      [
        "ĠSTR",
        "NEWLINE"
      ],
      [
        "Ġr",
        "em"
      ],
      [
        "Ġflo",
        "at"
      ],
      [
        "de",
        "r"
      ],
      [
        "s",
        "et"
      ],
      [
        "Ġnum",
        "ber"
      ],
      [
        "ĠMa",
        "x"
      ],
      [
        "c",
        "lass"
      ],
      [
        "Ġfl",
        "ag"
      ],
      [
        "o",
        "p"
      ],
      [
        "Ġv",
        "ector"
      ],
      [
        "i",
        "ble"
      ],
      [
        "Ġs",
        "ort"
      ],
      [
        "M",
        "in"
      ],
      [
        "Ġ-",
        "="
      ],
      [
        "se",
        "rt"
      ],
      [
        "P",
        "air"
      ],
      [
        "Ġend",
        "l"
      ],
      [
        "str",
        "ing"
      ],
      [
        "m",
        "al"
      ],
      [
        "Ġr",
        "ow"
      ],
      [
        "Ġt",
        "otal"
      ],
      [
        "e",
        "st"
      ],
      [
        "Ġ",
        "of"
      ],
      [
        "ay",
        "s"
      ],
      [
        "q",
        "rt"
      ],
      [
        "ĠL",
        "ist"
      ],
      [
        "t",
        "il"
      ],
      [
        "C",
        "h"
      ],
      [
        "Ġpre",
        "fix"
      ],
      [
        "d",
        "j"
      ],
      [
        "U",
        "til"
      ],
      [
        "ĠY",
        "es"
      ],
      [
        "Ġp",
        "air"
      ],
      [
        "Ġi",
        "t"
      ],
      [
        "a",
        "rr"
      ],
      [
        "ĠC",
        "ount"
      ],
      [
        "Ġin",
        "sert"
      ],
      [
        "a",
        "in"
      ],
      [
        "Ġ",
        "H"
      ],
      [
        "iv",
        "is"
      ],
      [
        "ĠA",
        "dd"
      ],
      [
        "Val",
        "ue"
      ],
      [
        "rod",
        "uct"
      ],
      [
        "Ġo",
        "dd"
      ],
      [
        "p",
        "s"
      ],
      [
        "S",
        "et"
      ],
      [
        "Ġco",
        "nt"
      ],
      [
        "h",
        "p"
      ],
      [
        "Ġl",
        "ast"
      ],
      [
        "Ġv",
        "is"
      ],
      [
        "ek",
        "s"
      ],
      [
        "Ġ10",
        "0"
      ],
      [
        "le",
        "an"
      ],
      [
        "Ġp",
        "hp"
      ],
      [
        "er",
        "m"
      ],
      [
        "e",
        "ight"
      ],
      [
        "Ġab",
        "s"
      ],
      [
        "o",
        "int"
      ],
      [
        "a",
        "se"
      ],
      [
        "Ġs",
        "e"
      ],
      [
        "Ġ/",
        "/"
      ],
      [
        "qu",
        "ar"
      ],
      [
        "Ġc",
        "on"
      ],
      [
        "Ġ",
        "|"
      ],
      [
        "I",
        "nt"
      ],
      [
        "Ġs",
        "ol"
      ],
      [
        "Ġcurr",
        "ent"
      ],
      [
        "l",
        "o"
      ],
      [
        "i",
        "al"
      ],
      [
        "Ġ",
        "E"
      ],
      [
        "Ġ",
        "^"
      ],
      [
        "ve",
        "l"
      ],
      [
        "S",
        "e"
      ],
      [
        "n",
        "um"
      ],
      [
        "e",
        "ct"
      ],
      [
        "Ġpow",
        "er"
      ],
      [
        "a",
        "ns"
      ],
      [
        "ri",
        "es"
      ],
      [
        "Ġa",
        "p"
      ],
      [
        "L",
        "L"
      ],
      [
        "w",
        "er"
      ],
      [
        "Ġs",
        "qrt"
      ],
      [
        "o",
        "g"
      ],
      [
        "mal",
        "le"
      ],
      [
        "Ġ1",
        "1"
      ],
      [
        "Ġ2",
        "0"
      ],
      [
        "n",
        "ode"
      ],
      [
        "Ġg",
        "cd"
      ],
      [
        "Ġ1",
        "5"
      ],
      [
        "pe",
        "nd"
      ],
      [
        "ro",
        "m"
      ],
      [
        "s",
        "ible"
      ],
      [
        "o",
        "m"
      ],
      [
        "ver",
        "se"
      ],
      [
        "ĠF",
        "alse"
      ],
      [
        "Ch",
        "ar"
      ],
      [
        "Ġap",
        "pend"
      ],
      [
        "p",
        "l"
      ],
      [
        "Ġa",
        "dj"
      ],
      [
        "ĠN",
        "U"
      ],
      [
        "Ġd",
        "ist"
      ],
      [
        "Ġe",
        "ven"
      ],
      [
        "Ġd",
        "iff"
      ],
      [
        "Ġval",
        "ue"
      ],
      [
        "Ġt",
        "hi"
      ],
      [
        "ĠT",
        "rue"
      ],
      [
        "ĠM",
        "in"
      ],
      [
        "or",
        "d"
      ],
      [
        "le",
        "ction"
      ],
      [
        "Ġi",
        "m"
      ],
      [
        "er",
        "y"
      ],
      [
        "ĠNU",
        "LL"
      ],
      [
        "m",
        "ax"
      ],
      [
        "ig",
        "its"
      ],
      [
        "d",
        "x"
      ],
      [
        "Ġt",
        "o"
      ],
      [
        "Ġc",
        "ur"
      ],
      [
        "Ġboo",
        "lean"
      ],
      [
        "Ġq",
        "ue"
      ],
      [
        "in",
        "ary"
      ],
      [
        "Pair",
        "s"
      ],
      [
        "il",
        "l"
      ],
      [
        "ri",
        "x"
      ],
      [
        "ou",
        "nd"
      ],
      [
        "a",
        "rray"
      ],
      [
        "u",
        "ery"
      ],
      [
        "Ġ2",
        "6"
      ],
      [
        "Ġans",
        "wer"
      ],
      [
        "v",
        "oid"
      ],
      [
        "lection",
        "s"
      ],
      [
        "C",
        "ode"
      ],
      [
        "Ġstr",
        "uct"
      ],
      [
        "Ġp",
        "tr"
      ],
      [
        "Ġor",
        "d"
      ],
      [
        "h",
        "e"
      ],
      [
        "Ġe",
        "x"
      ],
      [
        "Ġim",
        "port"
      ],
      [
        "i",
        "b"
      ],
      [
        "Ġi",
        "o"
      ],
      [
        "Ġmin",
        "imum"
      ],
      [
        "ĠN",
        "one"
      ],
      [
        "que",
        "n"
      ],
      [
        "malle",
        "st"
      ],
      [
        "o",
        "ve"
      ],
      [
        "Ġsol",
        "ve"
      ],
      [
        "quar",
        "e"
      ],
      [
        "ar",
        "ge"
      ],
      [
        "ol",
        "lections"
      ],
      [
        "s",
        "ize"
      ],
      [
        "Ġs",
        "i"
      ],
      [
        "il",
        "d"
      ],
      [
        "E",
        "lement"
      ],
      [
        "Ġ1000",
        "00"
      ],
      [
        "e",
        "ri"
      ],
      [
        "ow",
        "er"
      ],
      [
        "u",
        "p"
      ],
      [
        "Ġin",
        "d"
      ],
      [
        "Ġs",
        "el"
      ],
      [
        "ĠC",
        "ollections"
      ],
      [
        "ri",
        "nt"
      ],
      [
        "l",
        "l"
      ],
      [
        "u",
        "f"
      ],
      [
        "p",
        "ut"
      ],
      [
        "Ġg",
        "r"
      ],
      [
        "al",
        "ind"
      ],
      [
        "Ġmax",
        "imum"
      ],
      [
        "A",
        "rr"
      ],
      [
        "Ġ>",
        ">"
      ],
      [
        "le",
        "n"
      ],
      [
        "arge",
        "st"
      ],
      [
        "ĠĠ",
        "Ċ"
      ],
      [
        "1",
        "0"
      ],
      [
        "w",
        "ap"
      ],
      [
        "Ġf",
        "actor"
      ],
      [
        "Ġcont",
        "in"
      ],
      [
        "e",
        "eks"
      ],
      [
        "ation",
        "s"
      ],
      [
        "b",
        "ack"
      ],
      [
        "Ġd",
        "igit"
      ],
      [
        "Ġsel",
        "f"
      ],
      [
        "al",
        "c"
      ],
      [
        "P",
        "rime"
      ],
      [
        "Ġcontin",
        "ue"
      ],
      [
        "Ġ2",
        "5"
      ],
      [
        "Ġthi",
        "s"
      ],
      [
        "Ġ*",
        "="
      ],
      [
        "ĠI",
        "N"
      ],
      [
        "O",
        "dd"
      ],
      [
        "Ġf",
        "act"
      ],
      [
        "ivis",
        "or"
      ],
      [
        "T",
        "o"
      ],
      [
        "a",
        "b"
      ],
      [
        "Ġh",
        "ash"
      ],
      [
        "Ġ",
        "#"
      ],
      [
        "it",
        "ed"
      ],
      [
        "D",
        "igit"
      ],
      [
        "Ġm",
        "ath"
      ],
      [
        "P",
        "os"
      ],
      [
        "Ġflo",
        "or"
      ],
      [
        "er",
        "o"
      ],
      [
        "ĠH",
        "ash"
      ],
      [
        "Ġ1",
        "3"
      ],
      [
        "r",
        "es"
      ],
      [
        "T",
        "ree"
      ],
      [
        "in",
        "dex"
      ],
      [
        "Ġco",
        "st"
      ],
      [
        "D",
        "iff"
      ],
      [
        "ap",
        "h"
      ],
      [
        "In",
        "dex"
      ],
      [
        "an",
        "ce"
      ],
      [
        "Ġpar",
        "se"
      ],
      [
        "quen",
        "ce"
      ],
      [
        "P",
        "ath"
      ],
      [
        "O",
        "R"
      ],
      [
        "Ġparse",
        "Int"
      ],
      [
        "e",
        "ve"
      ],
      [
        "it",
        "ion"
      ],
      [
        "Ġl",
        "c"
      ],
      [
        "Ġ/",
        "="
      ],
      [
        "ĠisP",
        "rime"
      ],
      [
        "Ġchar",
        "Code"
      ],
      [
        "ĠcharCode",
        "At"
      ],
      [
        "ic",
        "t"
      ],
      [
        "w",
        "o"
      ],
      [
        "t",
        "y"
      ],
      [
        "p",
        "rint"
      ],
      [
        "W",
        "ays"
      ],
      [
        "Ġprint",
        "f"
      ],
      [
        "eri",
        "c"
      ],
      [
        "or",
        "der"
      ],
      [
        "d",
        "ge"
      ],
      [
        "Ġi",
        "dx"
      ],
      [
        "Ġn",
        "o"
      ],
      [
        "ul",
        "ate"
      ],
      [
        "ar",
        "ch"
      ],
      [
        "Ġ|",
        "|"
      ],
      [
        "ro",
        "me"
      ],
      [
        "re",
        "f"
      ],
      [
        "ĠArray",
        "List"
      ],
      [
        "ĠG",
        "en"
      ],
      [
        "Ġre",
        "verse"
      ],
      [
        "ag",
        "on"
      ],
      [
        "t",
        "er"
      ],
      [
        "D",
        "ist"
      ],
      [
        "a",
        "d"
      ],
      [
        "it",
        "h"
      ],
      [
        "ain",
        "s"
      ],
      [
        "ĠGen",
        "eric"
      ],
      [
        "Ġpar",
        "ent"
      ],
      [
        "Ġle",
        "vel"
      ],
      [
        "Ġf",
        "ill"
      ],
      [
        "Ġvis",
        "ited"
      ],
      [
        "a",
        "nd"
      ],
      [
        "alind",
        "rome"
      ],
      [
        "Ġl",
        "og"
      ],
      [
        "te",
        "d"
      ],
      [
        "i",
        "ve"
      ],
      [
        "o",
        "nt"
      ],
      [
        "Ġu",
        "p"
      ],
      [
        "Ġl",
        "ist"
      ],
      [
        "Ġc",
        "alc"
      ],
      [
        "n",
        "e"
      ],
      [
        "ĠV",
        "ector"
      ],
      [
        "in",
        "al"
      ],
      [
        "Ġma",
        "p"
      ],
      [
        "m",
        "es"
      ],
      [
        "Ġb",
        "it"
      ],
      [
        "Ġp",
        "roduct"
      ],
      [
        "i",
        "p"
      ],
      [
        "Ġq",
        "uery"
      ],
      [
        "1",
        "1"
      ],
      [
        "S",
        "tr"
      ],
      [
        "m",
        "in"
      ],
      [
        "ĠS",
        "um"
      ],
      [
        "or",
        "e"
      ],
      [
        "Ġco",
        "mp"
      ],
      [
        "f",
        "ect"
      ],
      [
        "Ġ3",
        "0"
      ],
      [
        "i",
        "me"
      ],
      [
        "Ġmax",
        "Sum"
      ],
      [
        "f",
        "s"
      ],
      [
        "Ġt",
        "mp"
      ],
      [
        "Number",
        "s"
      ],
      [
        "a",
        "ble"
      ],
      [
        "O",
        "per"
      ],
      [
        "g",
        "es"
      ],
      [
        "K",
        "ey"
      ],
      [
        "L",
        "en"
      ],
      [
        "Ġn",
        "ot"
      ],
      [
        "Ġl",
        "l"
      ],
      [
        "Ġp",
        "op"
      ],
      [
        "er",
        "fect"
      ],
      [
        "Ġm",
        "x"
      ],
      [
        "L",
        "ength"
      ],
      [
        "M",
        "ap"
      ],
      [
        "Ġ1",
        "4"
      ],
      [
        "d",
        "ges"
      ],
      [
        "B",
        "its"
      ],
      [
        "C",
        "o"
      ],
      [
        "R",
        "e"
      ],
      [
        "O",
        "D"
      ],
      [
        "Ġ1",
        "6"
      ],
      [
        "Ġfind",
        "Min"
      ],
      [
        "Ġque",
        "ries"
      ],
      [
        "F",
        "actor"
      ],
      [
        "n",
        "c"
      ],
      [
        "en",
        "ce"
      ],
      [
        "A",
        "L"
      ],
      [
        "T",
        "ri"
      ],
      [
        "str",
        "uct"
      ],
      [
        "D",
        "igits"
      ],
      [
        "Ġgr",
        "aph"
      ],
      [
        "Ġl",
        "argest"
      ],
      [
        "Ġa",
        "rea"
      ],
      [
        "00",
        "0"
      ],
      [
        "C",
        "ost"
      ],
      [
        "ĠN",
        "um"
      ],
      [
        "qu",
        "al"
      ],
      [
        "Ġs",
        "uf"
      ],
      [
        "S",
        "quare"
      ],
      [
        "b",
        "oo"
      ],
      [
        "Ġd",
        "iv"
      ],
      [
        "agon",
        "al"
      ],
      [
        "it",
        "y"
      ],
      [
        "E",
        "ven"
      ],
      [
        "Ġw",
        "ord"
      ],
      [
        "Ġo",
        "p"
      ],
      [
        "Ġg",
        "eeks"
      ],
      [
        "g",
        "et"
      ],
      [
        "Ġ5",
        "0"
      ],
      [
        "Ġch",
        "ild"
      ],
      [
        "Ġcalc",
        "ulate"
      ],
      [
        "Ġb",
        "in"
      ],
      [
        "I",
        "N"
      ],
      [
        "t",
        "ack"
      ],
      [
        "Ġp",
        "ath"
      ],
      [
        "d",
        "p"
      ],
      [
        "Ġp",
        "at"
      ],
      [
        "Ġe",
        "lement"
      ],
      [
        "9",
        "9"
      ],
      [
        "ri",
        "d"
      ],
      [
        "Ġs",
        "mallest"
      ],
      [
        "Sub",
        "array"
      ],
      [
        "ĠNum",
        "ber"
      ],
      [
        "ĠM",
        "OD"
      ],
      [
        "re",
        "d"
      ],
      [
        "Ġfind",
        "Max"
      ],
      [
        "V",
        "AL"
      ],
      [
        "Ġ",
        "un"
      ],
      [
        "le",
        "s"
      ],
      [
        "M",
        "at"
      ],
      [
        "re",
        "am"
      ],
      [
        "O",
        "r"
      ],
      [
        "Ġd",
        "fs"
      ],
      [
        "M",
        "AX"
      ],
      [
        "or",
        "ted"
      ],
      [
        "L",
        "e"
      ],
      [
        "ĠIN",
        "T"
      ],
      [
        "U",
        "E"
      ],
      [
        "ĠI",
        "n"
      ],
      [
        "ĠArray",
        "s"
      ],
      [
        "E",
        "dge"
      ],
      [
        "VAL",
        "UE"
      ],
      [
        "Ġt",
        "r"
      ],
      [
        "R",
        "ec"
      ],
      [
        "ains",
        "Key"
      ],
      [
        "Ġf",
        "ib"
      ],
      [
        "Ġsum",
        "Of"
      ],
      [
        "ar",
        "get"
      ],
      [
        "Ġe",
        "l"
      ],
      [
        "Ġin",
        "put"
      ],
      [
        "ac",
        "h"
      ],
      [
        "Ġsub",
        "set"
      ],
      [
        "ter",
        "n"
      ],
      [
        "Ġs",
        "wap"
      ],
      [
        "u",
        "te"
      ],
      [
        "ow",
        "el"
      ],
      [
        "c",
        "es"
      ],
      [
        "Ġf",
        "inal"
      ],
      [
        "S",
        "ize"
      ],
      [
        "Ġp",
        "oint"
      ],
      [
        "Ġp",
        "ut"
      ],
      [
        "k",
        "e"
      ],
      [
        "Ġmat",
        "rix"
      ],
      [
        "def",
        "ine"
      ],
      [
        "B",
        "it"
      ],
      [
        "ivisor",
        "s"
      ],
      [
        "ict",
        "ion"
      ],
      [
        "Ġ1",
        "8"
      ],
      [
        "e",
        "x"
      ],
      [
        "iction",
        "ary"
      ],
      [
        "Ġh",
        "eight"
      ],
      [
        "p",
        "os"
      ],
      [
        "Ġ1000",
        "0"
      ],
      [
        "Ġt",
        "arget"
      ],
      [
        "Ġp",
        "r"
      ],
      [
        "boo",
        "l"
      ],
      [
        "A",
        "R"
      ],
      [
        "ĠN",
        "O"
      ],
      [
        "Ġg",
        "rid"
      ],
      [
        "ost",
        "ream"
      ],
      [
        "Ġmax",
        "i"
      ],
      [
        "Ġb",
        "inary"
      ],
      [
        "i",
        "ostream"
      ],
      [
        "c",
        "out"
      ],
      [
        "S",
        "ystem"
      ],
      [
        "Ġm",
        "em"
      ],
      [
        "g",
        "cd"
      ],
      [
        "Ġa",
        "re"
      ],
      [
        "Ġs",
        "r"
      ],
      [
        "Sub",
        "se"
      ],
      [
        ")",
        ";"
      ],
      [
        "e",
        "nd"
      ],
      [
        "Ġb",
        "ase"
      ],
      [
        "Ġh",
        "as"
      ],
      [
        "ig",
        "n"
      ],
      [
        "i",
        "de"
      ],
      [
        "e",
        "f"
      ],
      [
        "Ġlong",
        "est"
      ],
      [
        "F",
        "req"
      ],
      [
        "mp",
        "ty"
      ],
      [
        "Ġrem",
        "ove"
      ],
      [
        "H",
        "AR"
      ],
      [
        "Ġb",
        "eg"
      ],
      [
        "C",
        "onsole"
      ],
      [
        "d",
        "ocument"
      ],
      [
        "Ġpre",
        "f"
      ],
      [
        "p",
        "rime"
      ],
      [
        "in",
        "ct"
      ],
      [
        "C",
        "D"
      ],
      [
        "Ġf",
        "rom"
      ],
      [
        "er",
        "s"
      ],
      [
        "o",
        "ur"
      ],
      [
        "Ġel",
        "if"
      ],
      [
        "er",
        "ence"
      ],
      [
        "Oper",
        "ations"
      ],
      [
        "e",
        "il"
      ],
      [
        "i",
        "eve"
      ],
      [
        "Ġex",
        "p"
      ],
      [
        "Ġfactor",
        "ial"
      ],
      [
        "c",
        "urr"
      ],
      [
        "W",
        "ith"
      ],
      [
        "Ġe",
        "dges"
      ],
      [
        "e",
        "lement"
      ],
      [
        "P",
        "roduct"
      ],
      [
        "k",
        "ed"
      ],
      [
        "p",
        "re"
      ],
      [
        "Ġs",
        "eg"
      ],
      [
        "at",
        "er"
      ],
      [
        "A",
        "B"
      ],
      [
        "Val",
        "id"
      ],
      [
        "ut",
        "ion"
      ],
      [
        "P",
        "re"
      ],
      [
        "b",
        "al"
      ],
      [
        "a",
        "nt"
      ],
      [
        "d",
        "ate"
      ],
      [
        "R",
        "ight"
      ],
      [
        "e",
        "ek"
      ],
      [
        "Ġst",
        "e"
      ],
      [
        "ĠT",
        "he"
      ],
      [
        "s",
        "k"
      ],
      [
        "os",
        "sible"
      ],
      [
        "Ġre",
        "v"
      ],
      [
        "Ġs",
        "s"
      ],
      [
        "le",
        "ngth"
      ],
      [
        "b",
        "it"
      ],
      [
        "ge",
        "eks"
      ],
      [
        "Ġ3",
        "2"
      ],
      [
        "C",
        "HAR"
      ],
      [
        "Ġt",
        "op"
      ],
      [
        "Ġcount",
        "Pairs"
      ],
      [
        "Se",
        "arch"
      ],
      [
        "Char",
        "Array"
      ],
      [
        "Ġs",
        "p"
      ],
      [
        "Ġd",
        "is"
      ],
      [
        "pl",
        "it"
      ],
      [
        "Ġ=",
        ">"
      ],
      [
        "p",
        "let"
      ],
      [
        "X",
        "OR"
      ],
      [
        "P",
        "ower"
      ],
      [
        "r",
        "y"
      ],
      [
        "ĠHash",
        "Map"
      ],
      [
        "Ġb",
        "u"
      ],
      [
        "Ġpri",
        "mes"
      ],
      [
        "ivis",
        "ible"
      ],
      [
        "Ġbeg",
        "in"
      ],
      [
        "ue",
        "nc"
      ],
      [
        "Ġma",
        "sk"
      ],
      [
        "a",
        "il"
      ],
      [
        "ĠC",
        "ont"
      ],
      [
        "T",
        "wo"
      ],
      [
        "er",
        "ge"
      ],
      [
        "es",
        "s"
      ],
      [
        "ang",
        "le"
      ],
      [
        "T",
        "erm"
      ],
      [
        "\"",
        ");"
      ],
      [
        "Ġp",
        "q"
      ],
      [
        "h",
        "er"
      ],
      [
        "S",
        "ort"
      ],
      [
        "P",
        "ri"
      ],
      [
        "Ġlc",
        "m"
      ],
      [
        "ĠHash",
        "Set"
      ],
      [
        "Ġnum",
        "s"
      ],
      [
        "O",
        "ne"
      ],
      [
        "Ġadd",
        "Edge"
      ],
      [
        "Ġ",
        "nt"
      ],
      [
        "Ġp",
        "rod"
      ],
      [
        "m",
        "ap"
      ],
      [
        "Ġst",
        "ack"
      ],
      [
        "h",
        "en"
      ],
      [
        "ĠD",
        "ictionary"
      ],
      [
        "Ġco",
        "m"
      ],
      [
        "s",
        "ub"
      ],
      [
        "Ġsuf",
        "fix"
      ],
      [
        "p",
        "air"
      ],
      [
        "r",
        "at"
      ],
      [
        "c",
        "ore"
      ],
      [
        "Ġm",
        "ul"
      ],
      [
        "i",
        "se"
      ],
      [
        "v",
        "es"
      ],
      [
        "uenc",
        "y"
      ],
      [
        "Ġsub",
        "string"
      ],
      [
        "1",
        "2"
      ],
      [
        "ou",
        "s"
      ],
      [
        "Ġpos",
        "sible"
      ],
      [
        "Ġa",
        "ll"
      ],
      [
        "im",
        "it"
      ],
      [
        "Ġx",
        "or"
      ],
      [
        "an",
        "k"
      ],
      [
        "c",
        "nt"
      ],
      [
        "Of",
        "E"
      ],
      [
        "Ġ1",
        "7"
      ],
      [
        "u",
        "es"
      ],
      [
        "Ġde",
        "c"
      ],
      [
        "ĠMa",
        "p"
      ],
      [
        "E",
        "S"
      ],
      [
        "for",
        "geeks"
      ],
      [
        "Or",
        "der"
      ],
      [
        "Ġnt",
        "h"
      ],
      [
        "c",
        "i"
      ],
      [
        "Ġsi",
        "eve"
      ],
      [
        "Ġc",
        "an"
      ],
      [
        "ver",
        "t"
      ],
      [
        "lo",
        "se"
      ],
      [
        "ir",
        "c"
      ],
      [
        "00",
        "00"
      ],
      [
        "n",
        "o"
      ],
      [
        "Ġm",
        "ult"
      ],
      [
        "Ġit",
        "em"
      ],
      [
        "C",
        "on"
      ],
      [
        "s",
        "ing"
      ],
      [
        "lo",
        "bal"
      ],
      [
        "Mat",
        "rix"
      ],
      [
        "S",
        "te"
      ],
      [
        "ue",
        "ue"
      ],
      [
        "Ġs",
        "h"
      ],
      [
        "Ġs",
        "y"
      ],
      [
        "ar",
        "d"
      ],
      [
        "ĠS",
        "ub"
      ],
      [
        "ĠS",
        "ort"
      ],
      [
        "ic",
        "es"
      ],
      [
        "u",
        "x"
      ],
      [
        "Ġcount",
        "Sub"
      ],
      [
        "re",
        "ate"
      ],
      [
        "Ġw",
        "eight"
      ],
      [
        "Ġc",
        "eil"
      ],
      [
        "Element",
        "s"
      ],
      [
        "i",
        "o"
      ],
      [
        "l",
        "ong"
      ],
      [
        "ost",
        "hen"
      ],
      [
        "Ġw",
        "ays"
      ],
      [
        "rat",
        "osthen"
      ],
      [
        "Factor",
        "s"
      ],
      [
        "Ġup",
        "date"
      ],
      [
        "her",
        "e"
      ],
      [
        "Ġnumber",
        "Of"
      ],
      [
        "Ġ2",
        "1"
      ],
      [
        "Ġg",
        "lobal"
      ],
      [
        "Ġt",
        "able"
      ],
      [
        "ve",
        "ctor"
      ],
      [
        "b",
        "s"
      ],
      [
        "ratosthen",
        "es"
      ],
      [
        "Ġgeeks",
        "forgeeks"
      ],
      [
        "ro",
        "nt"
      ],
      [
        "ĠP",
        "ow"
      ],
      [
        "Ġz",
        "ero"
      ],
      [
        "Ġfind",
        "L"
      ],
      [
        "i",
        "que"
      ],
      [
        "C",
        "r"
      ],
      [
        "Ġ",
        "one"
      ],
      [
        "ef",
        "f"
      ],
      [
        "OfE",
        "ratosthenes"
      ],
      [
        "en",
        "er"
      ],
      [
        "ĠT",
        "o"
      ],
      [
        "ch",
        "ar"
      ],
      [
        "Ġt",
        "h"
      ],
      [
        "V",
        "owel"
      ],
      [
        "Ġ4",
        "0"
      ],
      [
        "Ġ",
        "Z"
      ],
      [
        "Ġfind",
        "Sum"
      ],
      [
        "on",
        "es"
      ],
      [
        "S",
        "T"
      ],
      [
        "Ġt",
        "he"
      ],
      [
        "Ġprint",
        "Array"
      ],
      [
        "ĠY",
        "ES"
      ],
      [
        "erm",
        "ut"
      ],
      [
        "at",
        "or"
      ],
      [
        "Ġcon",
        "struct"
      ],
      [
        "Ġ2",
        "3"
      ],
      [
        "Ġstr",
        "len"
      ],
      [
        "im",
        "al"
      ],
      [
        "Ġa",
        "ux"
      ],
      [
        "ĠS",
        "tack"
      ],
      [
        "ĠT",
        "ree"
      ],
      [
        "ĠC",
        "h"
      ],
      [
        "ĠMax",
        "imum"
      ],
      [
        "o",
        "dd"
      ],
      [
        "x",
        "or"
      ],
      [
        "Ġne",
        "g"
      ],
      [
        "l",
        "oc"
      ],
      [
        "Ġ",
        "O"
      ],
      [
        "Ġf",
        "ound"
      ],
      [
        "Ġt",
        "ri"
      ],
      [
        "S",
        "t"
      ],
      [
        "ĠP",
        "air"
      ],
      [
        "ub",
        "e"
      ],
      [
        "Tri",
        "plet"
      ],
      [
        "E",
        "qual"
      ],
      [
        "pe",
        "at"
      ],
      [
        "h",
        "t"
      ],
      [
        "o",
        "in"
      ],
      [
        "el",
        "l"
      ],
      [
        "e",
        "xt"
      ],
      [
        "Ġbu",
        "ild"
      ],
      [
        "re",
        "ater"
      ],
      [
        "U",
        "n"
      ],
      [
        "Ġde",
        "n"
      ],
      [
        "ri",
        "g"
      ],
      [
        "ng",
        "le"
      ],
      [
        "X",
        "or"
      ],
      [
        "Set",
        "Bits"
      ],
      [
        "ener",
        "ate"
      ],
      [
        "Ġc",
        "ase"
      ],
      [
        "ea",
        "p"
      ],
      [
        "ĠIN",
        "F"
      ],
      [
        "P",
        "alindrome"
      ],
      [
        "Ġs",
        "plit"
      ],
      [
        "Ġsr",
        "c"
      ],
      [
        "O",
        "L"
      ],
      [
        "f",
        "rom"
      ],
      [
        "l",
        "ow"
      ],
      [
        "i",
        "ven"
      ],
      [
        "ĠCont",
        "ainsKey"
      ],
      [
        "t",
        "ree"
      ],
      [
        "ea",
        "n"
      ],
      [
        "D",
        "ivisors"
      ],
      [
        "a",
        "ri"
      ],
      [
        "o",
        "mp"
      ],
      [
        "R",
        "ange"
      ],
      [
        "is",
        "sing"
      ],
      [
        "et",
        "er"
      ],
      [
        "m",
        "on"
      ],
      [
        "Dist",
        "ance"
      ],
      [
        "le",
        "ft"
      ],
      [
        "Ġsy",
        "s"
      ],
      [
        "ut",
        "o"
      ],
      [
        "e",
        "ach"
      ],
      [
        "R",
        "em"
      ],
      [
        "A",
        "rea"
      ],
      [
        "A",
        "ll"
      ],
      [
        "ĠP",
        "oint"
      ],
      [
        "o",
        "ves"
      ],
      [
        "ĠS",
        "ieve"
      ],
      [
        "ent",
        "er"
      ],
      [
        "Ġ2",
        "4"
      ],
      [
        "Ġcount",
        "er"
      ],
      [
        "act",
        "er"
      ],
      [
        "E",
        "le"
      ],
      [
        "e",
        "ven"
      ],
      [
        "i",
        "an"
      ],
      [
        "Ġf",
        "ront"
      ],
      [
        "Ġ6",
        "0"
      ],
      [
        "Ġb",
        "o"
      ],
      [
        "u",
        "c"
      ],
      [
        "S",
        "mallest"
      ],
      [
        "d",
        "ouble"
      ],
      [
        "Ġ100000",
        "000"
      ],
      [
        "l",
        "y"
      ],
      [
        "f",
        "actor"
      ],
      [
        "oo",
        "k"
      ],
      [
        "E",
        "nd"
      ],
      [
        "c",
        "ost"
      ],
      [
        "Ġm",
        "erge"
      ],
      [
        "Ġmax",
        "Len"
      ],
      [
        "ĠF",
        "ind"
      ],
      [
        "loc",
        "k"
      ],
      [
        "quar",
        "es"
      ],
      [
        "ĠMin",
        "imum"
      ],
      [
        "F",
        "or"
      ],
      [
        "P",
        "oint"
      ],
      [
        "Ġa",
        "t"
      ],
      [
        "Ġpoint",
        "s"
      ],
      [
        "m",
        "at"
      ],
      [
        "Ġcount",
        "Ways"
      ],
      [
        "Ste",
        "ps"
      ],
      [
        "ĠisP",
        "ossible"
      ],
      [
        "Ġg",
        "enerate"
      ],
      [
        "Ġmin",
        "i"
      ],
      [
        "ĠL",
        "in"
      ],
      [
        "Ġis",
        "S"
      ],
      [
        "Ġm",
        "ar"
      ],
      [
        "Sub",
        "set"
      ],
      [
        "Ġlow",
        "er"
      ],
      [
        "p",
        "th"
      ],
      [
        "er",
        "os"
      ],
      [
        "Ġis",
        "Valid"
      ],
      [
        "ĠA",
        "bs"
      ],
      [
        "Ġt",
        "y"
      ],
      [
        "p",
        "t"
      ],
      [
        "Ġl",
        "ang"
      ],
      [
        "4",
        "5"
      ],
      [
        "ign",
        "ed"
      ],
      [
        "Ġ^",
        "="
      ],
      [
        "Pos",
        "sible"
      ],
      [
        "Ġa",
        "uto"
      ],
      [
        "C",
        "ol"
      ],
      [
        "Ġd",
        "i"
      ],
      [
        "Ġ1",
        "9"
      ],
      [
        "ĠD",
        "P"
      ],
      [
        "S",
        "wap"
      ],
      [
        "T",
        "ime"
      ],
      [
        "f",
        "req"
      ],
      [
        "O",
        "n"
      ],
      [
        "om",
        "ial"
      ],
      [
        "Ġin",
        "c"
      ],
      [
        "I",
        "dx"
      ],
      [
        "a",
        "f"
      ],
      [
        "Ġe",
        "mpty"
      ],
      [
        "Ġget",
        "Max"
      ],
      [
        "Ġ4",
        "8"
      ],
      [
        "f",
        "ar"
      ],
      [
        "3",
        "2"
      ],
      [
        "de",
        "red"
      ],
      [
        "Ġ2",
        "2"
      ],
      [
        "D",
        "e"
      ],
      [
        "t",
        "emp"
      ],
      [
        "D",
        "ivisible"
      ],
      [
        "le",
        "te"
      ],
      [
        "ĠL",
        "C"
      ],
      [
        "mal",
        "l"
      ],
      [
        "L",
        "ea"
      ],
      [
        "val",
        "ue"
      ],
      [
        "B",
        "y"
      ],
      [
        "Ġse",
        "arch"
      ],
      [
        "Ġin",
        "order"
      ],
      [
        "P",
        "ermut"
      ],
      [
        "Ġprint",
        "List"
      ],
      [
        "Se",
        "quence"
      ],
      [
        "Subse",
        "quence"
      ],
      [
        "s",
        "ort"
      ],
      [
        "Ġu",
        "ns"
      ],
      [
        "Ġsi",
        "de"
      ],
      [
        "Ġcount",
        "Of"
      ],
      [
        "B",
        "inary"
      ],
      [
        "ac",
        "ci"
      ],
      [
        "String",
        "s"
      ],
      [
        "Pri",
        "mes"
      ],
      [
        "b",
        "in"
      ],
      [
        "i",
        "ous"
      ],
      [
        "Ġa",
        "l"
      ],
      [
        "r",
        "em"
      ],
      [
        "Ġ3",
        "1"
      ],
      [
        "Le",
        "vel"
      ],
      [
        "Ġs",
        "orted"
      ],
      [
        "Ġl",
        "o"
      ],
      [
        "Co",
        "mp"
      ],
      [
        "ĠN",
        "ot"
      ],
      [
        "Ġt",
        "wo"
      ],
      [
        "Ġb",
        "rr"
      ],
      [
        "Path",
        "s"
      ],
      [
        "Array",
        "s"
      ],
      [
        "Ġr",
        "ec"
      ],
      [
        "Ġd",
        "igits"
      ],
      [
        "on",
        "acci"
      ],
      [
        "arr",
        "y"
      ],
      [
        "Ġ",
        "um"
      ],
      [
        "nt",
        "ry"
      ],
      [
        "i",
        "us"
      ],
      [
        "R",
        "ow"
      ],
      [
        "ĠB",
        "inary"
      ],
      [
        "ĠisP",
        "erfect"
      ],
      [
        "se",
        "nt"
      ],
      [
        "Z",
        "ero"
      ],
      [
        "Ġab",
        "c"
      ],
      [
        "um",
        "n"
      ],
      [
        "Ġl",
        "is"
      ],
      [
        "Ġs",
        "q"
      ],
      [
        "end",
        "ing"
      ],
      [
        "Ġcon",
        "st"
      ],
      [
        "Ġno",
        "Of"
      ],
      [
        "i",
        "red"
      ],
      [
        "Ġout",
        "put"
      ],
      [
        "Ġ100000000",
        "7"
      ],
      [
        "Ġr",
        "ank"
      ],
      [
        "num",
        "ber"
      ],
      [
        "if",
        "t"
      ],
      [
        "Ġma",
        "ke"
      ],
      [
        "que",
        "ue"
      ],
      [
        "oc",
        "ess"
      ],
      [
        "ft",
        "er"
      ],
      [
        "al",
        "an"
      ],
      [
        "Ġh",
        "i"
      ],
      [
        "Ġm",
        "s"
      ],
      [
        "n",
        "er"
      ],
      [
        "of",
        "it"
      ],
      [
        "A",
        "nd"
      ],
      [
        "Ġ4",
        "5"
      ],
      [
        "ĠSieve",
        "OfEratosthenes"
      ],
      [
        "z",
        "ero"
      ],
      [
        "Ġr",
        "ad"
      ],
      [
        "Ġque",
        "ue"
      ],
      [
        "F",
        "ib"
      ],
      [
        "r",
        "d"
      ],
      [
        "Le",
        "ft"
      ],
      [
        "Diff",
        "erence"
      ],
      [
        "ĠisP",
        "ower"
      ],
      [
        "Ġcol",
        "or"
      ],
      [
        "ĠS",
        "qrt"
      ],
      [
        "Ġp",
        "i"
      ],
      [
        "Ġcon",
        "vert"
      ],
      [
        "Ġl",
        "imit"
      ],
      [
        "F",
        "irst"
      ],
      [
        "Ġde",
        "st"
      ],
      [
        "Ġdist",
        "ance"
      ],
      [
        "d",
        "igit"
      ],
      [
        "Ġe",
        "le"
      ],
      [
        "Ġmin",
        "Operations"
      ],
      [
        "C",
        "nt"
      ],
      [
        "rig",
        "ht"
      ],
      [
        "Ġc",
        "reate"
      ],
      [
        "Ġ",
        "ones"
      ],
      [
        "Ġ|",
        "="
      ],
      [
        "P",
        "erfect"
      ],
      [
        "1",
        "4"
      ],
      [
        "ĠisP",
        "alindrome"
      ],
      [
        "Ġi",
        "tr"
      ],
      [
        "ĠMAX",
        "N"
      ],
      [
        "d",
        "ist"
      ],
      [
        "in",
        "it"
      ],
      [
        "Ġsp",
        "f"
      ],
      [
        "I",
        "Z"
      ],
      [
        "Ġn",
        "Cr"
      ],
      [
        "Ġste",
        "ps"
      ],
      [
        "f",
        "ind"
      ],
      [
        "Node",
        "s"
      ],
      [
        "Ġde",
        "l"
      ],
      [
        "Ġpair",
        "s"
      ],
      [
        "at",
        "ive"
      ],
      [
        "Ġv",
        "ec"
      ],
      [
        "Ġlc",
        "s"
      ],
      [
        "Ġint",
        "er"
      ],
      [
        "E",
        "x"
      ],
      [
        "Ġc",
        "lose"
      ],
      [
        "ĠM",
        "IN"
      ],
      [
        "Ġmult",
        "i"
      ],
      [
        "ol",
        "ution"
      ],
      [
        "IZ",
        "E"
      ],
      [
        "Ġprev",
        "ious"
      ],
      [
        "Dist",
        "inct"
      ],
      [
        "W",
        "ord"
      ],
      [
        "l",
        "d"
      ],
      [
        "i",
        "es"
      ],
      [
        "de",
        "c"
      ],
      [
        "S",
        "core"
      ],
      [
        "Ġt",
        "est"
      ],
      [
        "Ġp",
        "art"
      ],
      [
        "t",
        "erm"
      ],
      [
        "Ġcont",
        "ainsKey"
      ],
      [
        "Ġsub",
        "str"
      ],
      [
        "a",
        "a"
      ],
      [
        "Ġd",
        "ig"
      ],
      [
        "d",
        "ata"
      ],
      [
        "ed",
        "ian"
      ],
      [
        "p",
        "h"
      ],
      [
        "D",
        "ec"
      ],
      [
        "Ġc",
        "arry"
      ],
      [
        "R",
        "ot"
      ],
      [
        "Ġfind",
        "M"
      ],
      [
        "r",
        "aph"
      ],
      [
        "Ġs",
        "quare"
      ],
      [
        "Ġse",
        "q"
      ],
      [
        "Ġa",
        "s"
      ],
      [
        "or",
        "dered"
      ],
      [
        "Ġv",
        "er"
      ],
      [
        "T",
        "h"
      ],
      [
        "Ġl",
        "ook"
      ],
      [
        "M",
        "B"
      ],
      [
        "S",
        "Y"
      ],
      [
        "Ġt",
        "ime"
      ],
      [
        "ag",
        "e"
      ],
      [
        "r",
        "ow"
      ],
      [
        "N",
        "on"
      ],
      [
        "Ġfreq",
        "uency"
      ],
      [
        "N",
        "o"
      ],
      [
        "ou",
        "p"
      ],
      [
        "d",
        "iff"
      ],
      [
        "r",
        "oot"
      ],
      [
        "L",
        "ast"
      ],
      [
        "Ġuns",
        "igned"
      ],
      [
        "ĠT",
        "AB"
      ],
      [
        "MB",
        "OL"
      ],
      [
        "SY",
        "MBOL"
      ],
      [
        "ĠTAB",
        "SYMBOL"
      ],
      [
        "Ġst",
        "ate"
      ],
      [
        "D",
        "P"
      ],
      [
        "r",
        "am"
      ],
      [
        "un",
        "c"
      ],
      [
        "Ġo",
        "b"
      ],
      [
        "Ġpos",
        "ition"
      ],
      [
        "ĠLin",
        "ked"
      ],
      [
        "Ġup",
        "per"
      ],
      [
        "A",
        "l"
      ],
      [
        "ĠA",
        "rr"
      ],
      [
        "Ġv",
        "ect"
      ],
      [
        "Ġbinary",
        "Search"
      ],
      [
        "t",
        "o"
      ],
      [
        "Ġmem",
        "set"
      ],
      [
        "Ġw",
        "t"
      ],
      [
        "Ġp",
        "ro"
      ],
      [
        "Ġ%",
        "="
      ],
      [
        "ĠT",
        "ri"
      ],
      [
        "ĠBinary",
        "Tree"
      ],
      [
        "F",
        "rom"
      ],
      [
        "Ġd",
        "ivisor"
      ],
      [
        "C",
        "om"
      ],
      [
        "1",
        "00"
      ],
      [
        "ĠG",
        "et"
      ],
      [
        "Ġ25",
        "6"
      ],
      [
        "Ġval",
        "ues"
      ],
      [
        "Ġbin",
        "omial"
      ],
      [
        "Ġ",
        "oc"
      ],
      [
        "Ġr",
        "et"
      ],
      [
        "Ġmem",
        "o"
      ],
      [
        "Ġin",
        "v"
      ],
      [
        "Ġis",
        "Vowel"
      ],
      [
        "ĠTree",
        "Node"
      ],
      [
        "On",
        "es"
      ],
      [
        "m",
        "od"
      ],
      [
        "c",
        "on"
      ],
      [
        "Ġto",
        "CharArray"
      ],
      [
        "Ġmax",
        "size"
      ],
      [
        "S",
        "tack"
      ],
      [
        "R",
        "oot"
      ],
      [
        "Ġfor",
        "each"
      ],
      [
        "Ġpri",
        "ce"
      ],
      [
        "Ġma",
        "ze"
      ],
      [
        "Ġ3",
        "6"
      ],
      [
        "Co",
        "eff"
      ],
      [
        "c",
        "ur"
      ],
      [
        "Ġty",
        "pe"
      ],
      [
        "P",
        "r"
      ],
      [
        "k",
        "s"
      ],
      [
        "ĠCh",
        "ar"
      ],
      [
        "Ġc",
        "irc"
      ],
      [
        "ar",
        "e"
      ],
      [
        "Ġget",
        "Min"
      ],
      [
        "Ġfind",
        "Count"
      ],
      [
        "N",
        "th"
      ],
      [
        "p",
        "y"
      ],
      [
        "Ġm",
        "y"
      ],
      [
        "ul",
        "ar"
      ],
      [
        "il",
        "ity"
      ],
      [
        "s",
        "ion"
      ],
      [
        "ow",
        "n"
      ],
      [
        "Ġthi",
        "rd"
      ],
      [
        "ue",
        "ries"
      ],
      [
        "Ġcomp",
        "ute"
      ],
      [
        "ĠQ",
        "uery"
      ],
      [
        "pl",
        "ace"
      ],
      [
        "G",
        "CD"
      ],
      [
        "Ġs",
        "mall"
      ],
      [
        "Ġcount",
        "S"
      ],
      [
        "std",
        "io"
      ],
      [
        "Ġrem",
        "ain"
      ],
      [
        "ong",
        "est"
      ],
      [
        "Ġt",
        "xt"
      ],
      [
        "ĠMax",
        "Value"
      ],
      [
        "Ġ>>",
        "="
      ],
      [
        "Ġcol",
        "umn"
      ],
      [
        "ne",
        "w"
      ],
      [
        "C",
        "ase"
      ],
      [
        "Ġs",
        "z"
      ],
      [
        "ĠTo",
        "CharArray"
      ],
      [
        "ĠSub",
        "string"
      ],
      [
        "Ġbo",
        "ard"
      ],
      [
        "al",
        "f"
      ],
      [
        "Ġq",
        "u"
      ],
      [
        "lo",
        "at"
      ],
      [
        "Ġp",
        "hi"
      ],
      [
        "ĠR",
        "e"
      ],
      [
        "Ġpat",
        "tern"
      ],
      [
        "Ġm",
        "n"
      ],
      [
        "Triplet",
        "s"
      ],
      [
        "Ġj",
        "oin"
      ],
      [
        "Ġcount",
        "SetBits"
      ],
      [
        "b",
        "ab"
      ],
      [
        "Ġget",
        "Sum"
      ],
      [
        "ea",
        "rr"
      ],
      [
        "Ġp",
        "eek"
      ],
      [
        "Ġ9",
        "7"
      ],
      [
        "Ġnumber",
        "s"
      ],
      [
        "ari",
        "ty"
      ],
      [
        "se",
        "c"
      ],
      [
        "Se",
        "q"
      ],
      [
        "Ġb",
        "its"
      ],
      [
        "Se",
        "ries"
      ],
      [
        "Ġa",
        "ngle"
      ],
      [
        "it",
        "e"
      ],
      [
        "ĠG",
        "eeks"
      ],
      [
        "D",
        "iv"
      ],
      [
        "pl",
        "y"
      ],
      [
        "Sub",
        "string"
      ],
      [
        "c",
        "ed"
      ],
      [
        "H",
        "ash"
      ],
      [
        "Ġ",
        "Value"
      ],
      [
        "quen",
        "ces"
      ],
      [
        "ĠS",
        "tr"
      ],
      [
        "ĠQ",
        "ueue"
      ],
      [
        "I",
        "nd"
      ],
      [
        "c",
        "omp"
      ],
      [
        "Ġ10000",
        "5"
      ],
      [
        "e",
        "le"
      ],
      [
        "d",
        "igits"
      ],
      [
        "w",
        "ise"
      ],
      [
        "Ġk",
        "th"
      ],
      [
        "malle",
        "r"
      ],
      [
        "Ġ*",
        "*"
      ],
      [
        "p",
        "roduct"
      ],
      [
        "Of",
        "Two"
      ],
      [
        "Num",
        "s"
      ],
      [
        "alind",
        "rom"
      ],
      [
        "M",
        "IN"
      ],
      [
        "Pre",
        "fix"
      ],
      [
        "and",
        "om"
      ],
      [
        "Ġmin",
        "Cost"
      ],
      [
        "Ġst",
        "ore"
      ],
      [
        "peat",
        "ing"
      ],
      [
        "Ġto",
        "String"
      ],
      [
        "Ġlook",
        "up"
      ],
      [
        "Ġg",
        "ap"
      ],
      [
        "at",
        "tern"
      ],
      [
        "ang",
        "es"
      ],
      [
        "D",
        "i"
      ],
      [
        "f",
        "ill"
      ],
      [
        "f",
        "loat"
      ],
      [
        "10",
        "1"
      ],
      [
        "p",
        "r"
      ],
      [
        "at",
        "es"
      ],
      [
        "ĠS",
        "et"
      ],
      [
        "ĠG",
        "CD"
      ],
      [
        "Ġd",
        "up"
      ],
      [
        "ĠR",
        "em"
      ],
      [
        "ol",
        "um"
      ],
      [
        "Ġde",
        "lete"
      ],
      [
        "Ġin",
        "f"
      ],
      [
        "ĠG",
        "f"
      ],
      [
        "olum",
        "e"
      ],
      [
        "at",
        "ed"
      ],
      [
        "M",
        "a"
      ],
      [
        "Ġste",
        "p"
      ],
      [
        "M",
        "od"
      ],
      [
        "hi",
        "ld"
      ],
      [
        "val",
        "id"
      ],
      [
        "Ġbinomial",
        "Coeff"
      ],
      [
        "d",
        "le"
      ],
      [
        "i",
        "ent"
      ],
      [
        "Ġsh",
        "ift"
      ],
      [
        "Ġo",
        "per"
      ],
      [
        "ar",
        "ea"
      ],
      [
        "Ġ100000",
        "0"
      ],
      [
        "A",
        "ns"
      ],
      [
        "I",
        "T"
      ],
      [
        "c",
        "ol"
      ],
      [
        "Ġf",
        "ac"
      ],
      [
        "Ġget",
        "Count"
      ],
      [
        "Ġex",
        "tr"
      ],
      [
        "st",
        "art"
      ],
      [
        "se",
        "d"
      ],
      [
        "Ġmin",
        "Sum"
      ],
      [
        "qu",
        "ired"
      ],
      [
        "Ġs",
        "m"
      ],
      [
        "y",
        "c"
      ],
      [
        "Ġi",
        "d"
      ],
      [
        "ĠL",
        "og"
      ],
      [
        "ĠChar",
        "acter"
      ],
      [
        "Ġr",
        "ound"
      ],
      [
        "es",
        "ult"
      ],
      [
        "In",
        "order"
      ],
      [
        "res",
        "ult"
      ],
      [
        "Oper",
        "ation"
      ],
      [
        "Ġfactor",
        "s"
      ],
      [
        "pair",
        "s"
      ],
      [
        "v",
        "g"
      ],
      [
        "Ġe",
        "ntry"
      ],
      [
        "Ġb",
        "lock"
      ],
      [
        "P",
        "al"
      ],
      [
        "r",
        "a"
      ],
      [
        "re",
        "as"
      ],
      [
        "P",
        "ow"
      ],
      [
        "pl",
        "ay"
      ],
      [
        "Ġnew",
        "node"
      ],
      [
        "Ġde",
        "pth"
      ],
      [
        "E",
        "mpty"
      ],
      [
        "Ġop",
        "en"
      ],
      [
        "if",
        "y"
      ],
      [
        "Lea",
        "f"
      ],
      [
        "te",
        "st"
      ],
      [
        "earr",
        "ange"
      ],
      [
        "l",
        "ist"
      ],
      [
        "Ġg",
        "iven"
      ],
      [
        "Ġ3",
        "4"
      ],
      [
        "it",
        "ial"
      ],
      [
        "ac",
        "ent"
      ],
      [
        "ĠĠ",
        "ĠĠ"
      ],
      [
        "ĠX",
        "OR"
      ],
      [
        "ĠisPerfect",
        "Square"
      ],
      [
        "er",
        "se"
      ],
      [
        "Permut",
        "ation"
      ],
      [
        "for",
        "m"
      ],
      [
        "Ġ9",
        "0"
      ],
      [
        "in",
        "s"
      ],
      [
        "Ġ3",
        "5"
      ],
      [
        "enter",
        "ed"
      ],
      [
        "ĠGf",
        "G"
      ],
      [
        "u",
        "il"
      ],
      [
        "Ġt",
        "ail"
      ],
      [
        "H",
        "eight"
      ],
      [
        "P",
        "art"
      ],
      [
        "f",
        "a"
      ],
      [
        "s",
        "on"
      ],
      [
        "Ġt",
        "erm"
      ],
      [
        "C",
        "ube"
      ],
      [
        "Ġd",
        "ivisors"
      ],
      [
        "O",
        "c"
      ],
      [
        "our",
        "ce"
      ],
      [
        "Ġ2",
        "8"
      ],
      [
        "Ġnth",
        "Term"
      ],
      [
        "Q",
        "ueue"
      ],
      [
        "Ġm",
        "ean"
      ],
      [
        "im",
        "ize"
      ],
      [
        "m",
        "id"
      ],
      [
        "Ġe",
        "qual"
      ],
      [
        "Swap",
        "s"
      ],
      [
        "ĠK",
        "ey"
      ],
      [
        "h",
        "ead"
      ],
      [
        "Ġ18",
        "0"
      ],
      [
        "v",
        "is"
      ],
      [
        "Ġseg",
        "ment"
      ],
      [
        "Ġb",
        "est"
      ],
      [
        "av",
        "ers"
      ],
      [
        "Ġt",
        "ight"
      ],
      [
        "Ġt",
        "ot"
      ],
      [
        "Ġmax",
        "Val"
      ],
      [
        "bab",
        "ility"
      ],
      [
        "o",
        "se"
      ],
      [
        "4",
        "7"
      ],
      [
        "Ġun",
        "ique"
      ],
      [
        "c",
        "a"
      ],
      [
        "d",
        "s"
      ],
      [
        "99",
        "99"
      ],
      [
        "uf",
        "fix"
      ],
      [
        "Ġdiv",
        "ide"
      ],
      [
        "Ġ2",
        "7"
      ],
      [
        "Ġ==",
        "="
      ],
      [
        "Ġl",
        "ine"
      ],
      [
        "p",
        "oint"
      ],
      [
        "avers",
        "al"
      ],
      [
        "Ġsum",
        "m"
      ],
      [
        "Ġmulti",
        "ply"
      ],
      [
        "ic",
        "al"
      ],
      [
        "le",
        "vel"
      ],
      [
        "1",
        "5"
      ],
      [
        "ĠA",
        "B"
      ],
      [
        "ion",
        "s"
      ],
      [
        "el",
        "if"
      ],
      [
        "Ġsubset",
        "s"
      ],
      [
        "Ġs",
        "ame"
      ],
      [
        "K",
        "th"
      ],
      [
        "Ġd",
        "o"
      ],
      [
        "T",
        "otal"
      ],
      [
        "or",
        "test"
      ],
      [
        "ult",
        "ip"
      ],
      [
        "Ġcount",
        "Numbers"
      ],
      [
        "oo",
        "lean"
      ],
      [
        "Pos",
        "ition"
      ],
      [
        "Q",
        "uery"
      ],
      [
        "a",
        "ult"
      ],
      [
        "or",
        "ity"
      ],
      [
        "Ġch",
        "r"
      ],
      [
        "Ġgr",
        "oup"
      ],
      [
        "dec",
        "agonal"
      ],
      [
        "Ġf",
        "re"
      ],
      [
        "Ġmid",
        "dle"
      ],
      [
        "ĠP",
        "eek"
      ],
      [
        "N",
        "eg"
      ],
      [
        "os",
        "s"
      ],
      [
        "p",
        "tr"
      ],
      [
        "O",
        "p"
      ],
      [
        "p",
        "ed"
      ],
      [
        "S",
        "IZE"
      ],
      [
        "Ġ",
        "Odd"
      ],
      [
        "Ġ",
        "U"
      ],
      [
        "Sub",
        "Array"
      ],
      [
        "G",
        "reater"
      ],
      [
        "de",
        "d"
      ],
      [
        "P",
        "attern"
      ],
      [
        "uf",
        "f"
      ],
      [
        "N",
        "D"
      ],
      [
        "b",
        "ound"
      ],
      [
        "Ġm",
        "ove"
      ],
      [
        "f",
        "l"
      ],
      [
        "Ġt",
        "l"
      ],
      [
        "lo",
        "pe"
      ],
      [
        "S",
        "quares"
      ],
      [
        "Ġt",
        "w"
      ],
      [
        "Un",
        "ique"
      ],
      [
        "ĠRem",
        "ove"
      ],
      [
        "I",
        "Tree"
      ],
      [
        "on",
        "ent"
      ],
      [
        "i",
        "ed"
      ],
      [
        "S",
        "orted"
      ],
      [
        "in",
        "ner"
      ],
      [
        "Ġf",
        "unc"
      ],
      [
        "Ġin",
        "itial"
      ],
      [
        "ĠE",
        "n"
      ],
      [
        "re",
        "n"
      ],
      [
        "Ġre",
        "place"
      ],
      [
        "C",
        "hild"
      ],
      [
        "Ġw",
        "ith"
      ],
      [
        "Ġrad",
        "ius"
      ],
      [
        "Ġp",
        "ost"
      ],
      [
        "it",
        "ive"
      ],
      [
        "as",
        "k"
      ],
      [
        "Ġa",
        "c"
      ],
      [
        "ĠL",
        "I"
      ],
      [
        "Ġ",
        "J"
      ],
      [
        "am",
        "eter"
      ],
      [
        "4",
        "8"
      ],
      [
        "Ġp",
        "er"
      ],
      [
        "oo",
        "d"
      ],
      [
        "act",
        "ers"
      ],
      [
        "se",
        "quence"
      ],
      [
        "ĠT",
        "otal"
      ],
      [
        "Ġun",
        "ordered"
      ],
      [
        "Fib",
        "onacci"
      ],
      [
        "Ġsuf",
        "f"
      ],
      [
        "Ġ2",
        "9"
      ],
      [
        "m",
        "ost"
      ],
      [
        "Ġde",
        "g"
      ],
      [
        "o",
        "b"
      ],
      [
        "Ġmin",
        "Val"
      ],
      [
        "Ġis",
        "Divisible"
      ],
      [
        "val",
        "s"
      ],
      [
        "ĠLinked",
        "List"
      ],
      [
        "Ġb",
        "ack"
      ],
      [
        "ĠI",
        "s"
      ],
      [
        "l",
        "ast"
      ],
      [
        "Ġdist",
        "inct"
      ],
      [
        "3",
        "4"
      ],
      [
        "ĠB",
        "oolean"
      ],
      [
        "ĠEn",
        "queue"
      ],
      [
        "Ġh",
        "eap"
      ],
      [
        "Ġmax",
        "Diff"
      ],
      [
        "c",
        "r"
      ],
      [
        "reas",
        "ing"
      ],
      [
        "Ġq",
        "s"
      ],
      [
        "R",
        "esult"
      ],
      [
        "ĠP",
        "re"
      ],
      [
        "ĠfindMin",
        "imum"
      ],
      [
        "ĠGet",
        "Length"
      ],
      [
        "ĠM",
        "at"
      ],
      [
        "Ġtr",
        "ans"
      ],
      [
        "pre",
        "fix"
      ],
      [
        "Ġh",
        "ex"
      ],
      [
        "g",
        "le"
      ],
      [
        "Ġp",
        "ol"
      ],
      [
        "alan",
        "ced"
      ],
      [
        "T",
        "r"
      ],
      [
        "ĠA",
        "rea"
      ],
      [
        "m",
        "eter"
      ],
      [
        "Ġ",
        "\\"
      ],
      [
        "Ġ10",
        "1"
      ],
      [
        "Ġq",
        "e"
      ],
      [
        "Ġmax",
        "Length"
      ],
      [
        "pre",
        "v"
      ],
      [
        "ver",
        "age"
      ],
      [
        "ix",
        "ed"
      ],
      [
        "Ġl",
        "ps"
      ],
      [
        "Ġg",
        "reater"
      ],
      [
        "og",
        "gle"
      ],
      [
        "Ġmar",
        "k"
      ],
      [
        "ĠMin",
        "Value"
      ],
      [
        "ĠString",
        "B"
      ],
      [
        "Ġcomp",
        "are"
      ],
      [
        "Rec",
        "ur"
      ],
      [
        "Ġcirc",
        "le"
      ],
      [
        "Ġcom",
        "mon"
      ],
      [
        "ist",
        "s"
      ],
      [
        "Ġnode",
        "s"
      ],
      [
        "Ġnext",
        "Right"
      ],
      [
        "id",
        "th"
      ],
      [
        "Ġor",
        "ig"
      ],
      [
        "Ġ//",
        "="
      ],
      [
        "ĠE",
        "ven"
      ],
      [
        "Ġd",
        "ict"
      ],
      [
        "ol",
        "d"
      ],
      [
        "Ġre",
        "quired"
      ],
      [
        "str",
        "u"
      ],
      [
        "F",
        "S"
      ],
      [
        "N",
        "ext"
      ],
      [
        "S",
        "p"
      ],
      [
        "Ġmax",
        "N"
      ],
      [
        "Ġword",
        "s"
      ],
      [
        "A",
        "n"
      ],
      [
        "Ġse",
        "quence"
      ],
      [
        "w",
        "ays"
      ],
      [
        "Ġ8",
        "0"
      ],
      [
        "Int",
        "eger"
      ],
      [
        "Ġr",
        "earrange"
      ],
      [
        "er",
        "ator"
      ],
      [
        "ang",
        "les"
      ],
      [
        "son",
        "ant"
      ],
      [
        "Ġre",
        "q"
      ],
      [
        "S",
        "ame"
      ],
      [
        "Ġp",
        "erfect"
      ],
      [
        "Ġelement",
        "s"
      ],
      [
        "Ġ3",
        "3"
      ],
      [
        "Q",
        "ueries"
      ],
      [
        "uil",
        "der"
      ],
      [
        "Ġcount",
        "Digits"
      ],
      [
        "Ġm",
        "i"
      ],
      [
        "um",
        "p"
      ],
      [
        "Ġh",
        "m"
      ],
      [
        "comp",
        "ute"
      ],
      [
        "6",
        "5"
      ],
      [
        "Ġst",
        "k"
      ],
      [
        "Ġis",
        "Empty"
      ],
      [
        "ĠE",
        "lement"
      ],
      [
        "Ġfind",
        "Number"
      ],
      [
        "om",
        "in"
      ],
      [
        "Word",
        "s"
      ],
      [
        "i",
        "z"
      ],
      [
        "st",
        "e"
      ],
      [
        "Ġco",
        "py"
      ],
      [
        "Ġfl",
        "ip"
      ],
      [
        "Ġb",
        "e"
      ],
      [
        "Ġget",
        "Node"
      ],
      [
        "ĠP",
        "rime"
      ],
      [
        "Ġdis",
        "play"
      ],
      [
        "Ġcount",
        "Triplets"
      ],
      [
        "Ġpr",
        "ofit"
      ],
      [
        "stru",
        "ctor"
      ],
      [
        "iv",
        "ot"
      ],
      [
        "Ġmin",
        "D"
      ],
      [
        "Ġ7",
        "0"
      ],
      [
        "ri",
        "b"
      ],
      [
        "ing",
        "s"
      ],
      [
        "ĠP",
        "ush"
      ],
      [
        "Ġ10000",
        "1"
      ],
      [
        "Ġc",
        "at"
      ],
      [
        "Re",
        "peating"
      ],
      [
        "S",
        "olution"
      ],
      [
        "CHAR",
        "S"
      ],
      [
        "A",
        "dj"
      ],
      [
        "Ġ5",
        "6"
      ],
      [
        "ĠP",
        "ossible"
      ],
      [
        "al",
        "l"
      ],
      [
        "Ġe",
        "nc"
      ],
      [
        "t",
        "ime"
      ],
      [
        "ĠD",
        "e"
      ],
      [
        "T",
        "he"
      ],
      [
        "Ġ2",
        "00"
      ],
      [
        "B",
        "ound"
      ],
      [
        "M",
        "oves"
      ],
      [
        "St",
        "art"
      ],
      [
        "p",
        "ri"
      ],
      [
        "um",
        "ps"
      ],
      [
        "V",
        "ector"
      ],
      [
        "t",
        "em"
      ],
      [
        "te",
        "x"
      ],
      [
        "re",
        "es"
      ],
      [
        "Ġlc",
        "a"
      ],
      [
        "Ġ6",
        "4"
      ],
      [
        "os",
        "ite"
      ],
      [
        "en",
        "ces"
      ],
      [
        "C",
        "lose"
      ],
      [
        "Ġco",
        "eff"
      ],
      [
        "Ġcon",
        "structor"
      ],
      [
        "ĠStringB",
        "uilder"
      ],
      [
        "Ġfind",
        "Nth"
      ],
      [
        "Ġprefix",
        "Sum"
      ],
      [
        "Ġa",
        "n"
      ],
      [
        "Ġop",
        "t"
      ],
      [
        "Ġl",
        "a"
      ],
      [
        "el",
        "per"
      ],
      [
        "U",
        "p"
      ],
      [
        "Ġprint",
        "Inorder"
      ],
      [
        "Ġv",
        "p"
      ],
      [
        "Ġkey",
        "s"
      ],
      [
        "em",
        "ent"
      ],
      [
        "Ġpre",
        "sent"
      ],
      [
        "2",
        "3"
      ],
      [
        "Ġc",
        "t"
      ],
      [
        "Ġprint",
        "Arr"
      ],
      [
        "e",
        "ar"
      ],
      [
        "u",
        "nd"
      ],
      [
        "Ġclose",
        "st"
      ],
      [
        "Con",
        "sec"
      ],
      [
        "M",
        "ultip"
      ],
      [
        "Ġp",
        "t"
      ],
      [
        "Ġvalue",
        "Of"
      ],
      [
        "D",
        "up"
      ],
      [
        "Ġ100000",
        "0000"
      ],
      [
        "Ġd",
        "y"
      ],
      [
        "Z",
        "eros"
      ],
      [
        "ĠS",
        "t"
      ],
      [
        "Ġmat",
        "ch"
      ],
      [
        "a",
        "k"
      ],
      [
        "u",
        "le"
      ],
      [
        "ot",
        "ient"
      ],
      [
        "ut",
        "ive"
      ],
      [
        "ĠF",
        "irst"
      ],
      [
        "In",
        "c"
      ],
      [
        "Ġc",
        "and"
      ],
      [
        "Ġs",
        "core"
      ],
      [
        "Ġor",
        "der"
      ],
      [
        "Ġp",
        "l"
      ],
      [
        "Ġver",
        "t"
      ],
      [
        "Ġa",
        "vg"
      ],
      [
        "e",
        "e"
      ],
      [
        "if",
        "ied"
      ],
      [
        "F",
        "act"
      ],
      [
        "le",
        "ar"
      ],
      [
        "A",
        "ND"
      ],
      [
        "Ġc",
        "ell"
      ],
      [
        "Ġmax",
        "m"
      ],
      [
        "ec",
        "ial"
      ],
      [
        "Ind",
        "ices"
      ],
      [
        "up",
        "le"
      ],
      [
        "Ġl",
        "ds"
      ],
      [
        "ct",
        "ed"
      ],
      [
        "Ġget",
        "Value"
      ],
      [
        "Ġpart",
        "ition"
      ],
      [
        "Ġc",
        "c"
      ],
      [
        "ĠP",
        "rint"
      ],
      [
        "2",
        "0"
      ],
      [
        "E",
        "E"
      ],
      [
        "P",
        "rod"
      ],
      [
        "eri",
        "meter"
      ],
      [
        "P",
        "ro"
      ],
      [
        "Ġc",
        "ube"
      ],
      [
        "ĠL",
        "e"
      ],
      [
        "pos",
        "ition"
      ],
      [
        "p",
        "ath"
      ],
      [
        "Ġc",
        "al"
      ],
      [
        "ĠLI",
        "S"
      ],
      [
        "A",
        "P"
      ],
      [
        "Ġ6",
        "5"
      ],
      [
        "g",
        "g"
      ],
      [
        "Ġmaximum",
        "Sum"
      ],
      [
        "O",
        "F"
      ],
      [
        "i",
        "ps"
      ],
      [
        "v",
        "ate"
      ],
      [
        "ĠB",
        "ITree"
      ],
      [
        "ste",
        "ps"
      ],
      [
        "ed",
        "ge"
      ],
      [
        "Ġs",
        "b"
      ],
      [
        "Ġf",
        "ast"
      ],
      [
        "R",
        "ect"
      ],
      [
        "Ġs",
        "ign"
      ],
      [
        "Ġmax",
        "len"
      ],
      [
        "ĠE",
        "dges"
      ],
      [
        "b",
        "b"
      ],
      [
        "Ġc",
        "ap"
      ],
      [
        "ing",
        "le"
      ],
      [
        "Ġe",
        "dge"
      ],
      [
        "Ġv",
        "owel"
      ],
      [
        "Ġc",
        "r"
      ],
      [
        "w",
        "e"
      ],
      [
        "Ġcont",
        "ains"
      ],
      [
        "lo",
        "or"
      ],
      [
        "3",
        "6"
      ],
      [
        "et",
        "a"
      ],
      [
        "ĠM",
        "od"
      ],
      [
        "Ġz",
        "eros"
      ],
      [
        "alc",
        "ulate"
      ],
      [
        "L",
        "C"
      ],
      [
        "t",
        "wo"
      ],
      [
        "Ġcount",
        "P"
      ],
      [
        "ag",
        "ram"
      ],
      [
        "Ġr",
        "t"
      ],
      [
        "im",
        "es"
      ],
      [
        "IN",
        "T"
      ],
      [
        "G",
        "eeks"
      ],
      [
        "ĠIn",
        "valid"
      ],
      [
        "Ġsh",
        "ortest"
      ],
      [
        "bin",
        "ation"
      ],
      [
        "pr",
        "ocess"
      ],
      [
        "Ġis",
        "B"
      ],
      [
        "ch",
        "eck"
      ],
      [
        "Ġfib",
        "o"
      ],
      [
        "Point",
        "s"
      ],
      [
        "F",
        "l"
      ],
      [
        "G",
        "r"
      ],
      [
        "z",
        "y"
      ],
      [
        "Ġfind",
        "Smallest"
      ],
      [
        "Set",
        "Bit"
      ],
      [
        "Ġn",
        "s"
      ],
      [
        "e",
        "Node"
      ],
      [
        "Ġdiff",
        "erence"
      ],
      [
        "rr",
        "or"
      ],
      [
        "on",
        "ly"
      ],
      [
        "Ġo",
        "ct"
      ],
      [
        "Ġr",
        "andom"
      ],
      [
        "Ġt",
        "oggle"
      ],
      [
        "ĠMat",
        "rix"
      ],
      [
        "Ġm",
        "oves"
      ],
      [
        "ub",
        "es"
      ],
      [
        "Ġch",
        "ange"
      ],
      [
        "12",
        "3"
      ],
      [
        "Ġcheck",
        "I"
      ],
      [
        "Ġs",
        "u"
      ],
      [
        "Ġm",
        "edian"
      ],
      [
        "se",
        "q"
      ],
      [
        "Ġchild",
        "ren"
      ],
      [
        "Subarray",
        "s"
      ],
      [
        "Ġr",
        "ot"
      ],
      [
        "8",
        "9"
      ],
      [
        "t",
        "otal"
      ],
      [
        "Ġd",
        "own"
      ],
      [
        "Dup",
        "lic"
      ],
      [
        "Ch",
        "ain"
      ],
      [
        "Char",
        "Code"
      ],
      [
        "Ġfrom",
        "CharCode"
      ],
      [
        "E",
        "N"
      ],
      [
        "Ġs",
        "ource"
      ],
      [
        "tern",
        "ate"
      ],
      [
        "u",
        "al"
      ],
      [
        "d",
        "ict"
      ],
      [
        "eg",
        "ment"
      ],
      [
        "Ġmp",
        "p"
      ],
      [
        "Ġrow",
        "s"
      ],
      [
        "in",
        "c"
      ],
      [
        "Ġd",
        "x"
      ],
      [
        "Subse",
        "quences"
      ],
      [
        "W",
        "inner"
      ],
      [
        "Ġdi",
        "ameter"
      ],
      [
        "Ġoper",
        "ations"
      ],
      [
        "ar",
        "ent"
      ],
      [
        "6",
        "7"
      ],
      [
        "c",
        "at"
      ],
      [
        "c",
        "ase"
      ],
      [
        "on",
        "ic"
      ],
      [
        "Ġmax",
        "Product"
      ],
      [
        "ĠCh",
        "eck"
      ],
      [
        "e",
        "ns"
      ],
      [
        "ĠfindMax",
        "imum"
      ],
      [
        "Di",
        "agonal"
      ],
      [
        "Oc",
        "curr"
      ],
      [
        "Ġto",
        "F"
      ],
      [
        "Ġf",
        "our"
      ],
      [
        "Ġpre",
        "order"
      ],
      [
        "Ġ25",
        "5"
      ],
      [
        "P",
        "l"
      ],
      [
        "Ġsol",
        "ution"
      ],
      [
        "Ġms",
        "b"
      ],
      [
        "a",
        "w"
      ],
      [
        "Int",
        "erse"
      ],
      [
        "Digit",
        "Sum"
      ],
      [
        "Ġbit",
        "Count"
      ],
      [
        "S",
        "ieve"
      ],
      [
        "yc",
        "le"
      ],
      [
        "Ġcat",
        "alan"
      ],
      [
        "Ġmax",
        "Count"
      ],
      [
        "Ġmin",
        "Steps"
      ],
      [
        "sub",
        "array"
      ],
      [
        "st",
        "ate"
      ],
      [
        "Ġh",
        "alf"
      ],
      [
        "Ġmin",
        "Diff"
      ],
      [
        "Ġind",
        "ices"
      ],
      [
        "Ġsub",
        "array"
      ],
      [
        "2",
        "5"
      ],
      [
        "Ġfirst",
        "Digit"
      ],
      [
        "Pr",
        "ofit"
      ],
      [
        "Ġs",
        "low"
      ],
      [
        "Ġm",
        "issing"
      ],
      [
        "ic",
        "k"
      ],
      [
        "Ġadd",
        "Child"
      ],
      [
        "ĠE",
        "x"
      ],
      [
        "Permut",
        "ations"
      ],
      [
        "ĠRe",
        "verse"
      ],
      [
        "Ġn",
        "on"
      ],
      [
        "Ġ5",
        "5"
      ],
      [
        "ĠfindL",
        "argest"
      ],
      [
        "Factor",
        "ial"
      ],
      [
        "ĠC",
        "omp"
      ],
      [
        "qu",
        "ation"
      ],
      [
        "e",
        "w"
      ],
      [
        "Rem",
        "o"
      ],
      [
        "Ġinter",
        "val"
      ],
      [
        "ĠLC",
        "A"
      ],
      [
        "Ġextr",
        "a"
      ],
      [
        "Ġdigit",
        "Sum"
      ],
      [
        "Ġr",
        "h"
      ],
      [
        "Ġdef",
        "ault"
      ],
      [
        "ĠtoF",
        "ixed"
      ],
      [
        "Ġmax",
        "W"
      ],
      [
        "Ġst",
        "rr"
      ],
      [
        "Ġ4",
        "2"
      ],
      [
        "Ġpre",
        "Sum"
      ],
      [
        "Ġmult",
        "ip"
      ],
      [
        "Ġf",
        "r"
      ],
      [
        "Ġa",
        "m"
      ],
      [
        "Ġne",
        "ed"
      ],
      [
        "Ġ5",
        "00"
      ],
      [
        "In",
        "Range"
      ],
      [
        "14",
        "15"
      ],
      [
        "Ġsum",
        "of"
      ],
      [
        "ĠsumOf",
        "Digits"
      ],
      [
        "Ġp",
        "alindrome"
      ],
      [
        "Ġp",
        "ivot"
      ],
      [
        "id",
        "x"
      ],
      [
        "Subse",
        "q"
      ],
      [
        "Ġs",
        "maller"
      ],
      [
        "Ġc",
        "os"
      ],
      [
        "In",
        "verse"
      ],
      [
        "De",
        "pth"
      ],
      [
        "Ġr",
        "ed"
      ],
      [
        "at",
        "io"
      ],
      [
        "Ġfind",
        "S"
      ],
      [
        "Ġp",
        "arity"
      ],
      [
        "Rot",
        "ate"
      ],
      [
        "L",
        "ower"
      ],
      [
        "Ġtotal",
        "Sum"
      ],
      [
        "er",
        "g"
      ],
      [
        "Val",
        "ues"
      ],
      [
        "B",
        "e"
      ],
      [
        "c",
        "m"
      ],
      [
        "ĠisPower",
        "OfTwo"
      ],
      [
        "Ġver",
        "tex"
      ],
      [
        "Ġmax",
        "Value"
      ],
      [
        "Ġob",
        "j"
      ],
      [
        "ay",
        "er"
      ],
      [
        "ph",
        "ab"
      ],
      [
        "Ġs",
        "lope"
      ],
      [
        "A",
        "s"
      ],
      [
        "T",
        "able"
      ],
      [
        "Ġa",
        "fter"
      ],
      [
        "Ġmax",
        "imize"
      ],
      [
        "ec",
        "h"
      ],
      [
        "min",
        "imum"
      ],
      [
        "Consec",
        "utive"
      ],
      [
        "Ġcurr",
        "Sum"
      ],
      [
        "d",
        "iv"
      ],
      [
        "Ġa",
        "a"
      ],
      [
        "Ġexp",
        "r"
      ],
      [
        "af",
        "e"
      ],
      [
        "Com",
        "mon"
      ],
      [
        "M",
        "id"
      ],
      [
        "Q",
        "u"
      ],
      [
        "Subarray",
        "Sum"
      ],
      [
        "Ma",
        "ke"
      ],
      [
        "H",
        "eap"
      ],
      [
        "Freq",
        "uency"
      ],
      [
        "ĠfindL",
        "C"
      ],
      [
        "Ġremain",
        "der"
      ],
      [
        "ĠC",
        "O"
      ],
      [
        "ad",
        "r"
      ],
      [
        "omin",
        "ator"
      ],
      [
        "p",
        "art"
      ],
      [
        "et",
        "we"
      ],
      [
        "boo",
        "lean"
      ],
      [
        "etwe",
        "en"
      ],
      [
        "Ġa",
        "ab"
      ],
      [
        "Ġle",
        "af"
      ],
      [
        "ĠP",
        "I"
      ],
      [
        "pe",
        "ed"
      ],
      [
        "alindrom",
        "ic"
      ],
      [
        "s",
        "quare"
      ],
      [
        "Ġpre",
        "compute"
      ],
      [
        "ver",
        "sion"
      ],
      [
        "N",
        "S"
      ],
      [
        "Ġ12",
        "3"
      ],
      [
        "A",
        "ngle"
      ],
      [
        "11",
        "11"
      ],
      [
        "ra",
        "ction"
      ],
      [
        "1415",
        "9"
      ],
      [
        "G",
        "raph"
      ],
      [
        "Ġfind",
        "P"
      ],
      [
        "ĠT",
        "uple"
      ],
      [
        "Ġconstruct",
        "ST"
      ],
      [
        "c",
        "os"
      ],
      [
        "H",
        "ead"
      ],
      [
        "Ġ:",
        ":"
      ],
      [
        "Ġle",
        "x"
      ],
      [
        "Ġe",
        "n"
      ],
      [
        "ĠP",
        "op"
      ],
      [
        "a",
        "ve"
      ],
      [
        "Ġv",
        "olume"
      ],
      [
        "Ġd",
        "ir"
      ],
      [
        "Ġset",
        "Bits"
      ],
      [
        "p",
        "le"
      ],
      [
        "p",
        "ted"
      ],
      [
        "w",
        "ord"
      ],
      [
        "Ġ",
        "~"
      ],
      [
        "Ġdefault",
        "dict"
      ],
      [
        "a",
        "dj"
      ],
      [
        "ang",
        "ular"
      ],
      [
        "ĠD",
        "FS"
      ],
      [
        "Ġvis",
        "it"
      ],
      [
        "Char",
        "acters"
      ],
      [
        "ll",
        "oc"
      ],
      [
        "Ġcalculate",
        "Sum"
      ],
      [
        "ĠIn",
        "dex"
      ],
      [
        "Ġpro",
        "bability"
      ],
      [
        "E",
        "R"
      ],
      [
        "K",
        "S"
      ],
      [
        "Ġis",
        "Even"
      ],
      [
        "ĠĠ",
        "ĠĊ"
      ],
      [
        "Ġmod",
        "ify"
      ],
      [
        "Ġremain",
        "ing"
      ],
      [
        "ĠL",
        "en"
      ],
      [
        "Un",
        "ion"
      ],
      [
        "ĠcountOf",
        "Numbers"
      ],
      [
        "Ex",
        "p"
      ],
      [
        "E",
        "ach"
      ],
      [
        "Ġc",
        "tr"
      ],
      [
        "factor",
        "s"
      ],
      [
        "ĠLC",
        "S"
      ],
      [
        "D",
        "ictionary"
      ],
      [
        "G",
        "iven"
      ],
      [
        "Ġd",
        "ay"
      ],
      [
        "ĠD",
        "ist"
      ],
      [
        "l",
        "ing"
      ],
      [
        "t",
        "ri"
      ],
      [
        "rem",
        "ent"
      ],
      [
        "Ġorig",
        "inal"
      ],
      [
        "o",
        "rr"
      ],
      [
        "Ġt",
        "imes"
      ],
      [
        "Power",
        "Of"
      ],
      [
        "ĠS",
        "IZE"
      ],
      [
        "ĠTo",
        "String"
      ],
      [
        "Ġfind",
        "Ways"
      ],
      [
        "f",
        "g"
      ],
      [
        "Ġab",
        "cd"
      ],
      [
        "Ġmar",
        "ked"
      ],
      [
        "Neg",
        "ative"
      ],
      [
        "f",
        "act"
      ],
      [
        "ĠC",
        "on"
      ],
      [
        "In",
        "sert"
      ],
      [
        "ain",
        "der"
      ],
      [
        "ec",
        "ond"
      ],
      [
        "Max",
        "imum"
      ],
      [
        "M",
        "ost"
      ],
      [
        "ĠTri",
        "eNode"
      ],
      [
        "Ġla",
        "zy"
      ],
      [
        "phab",
        "et"
      ],
      [
        "p",
        "f"
      ],
      [
        "ĠJ",
        "oin"
      ],
      [
        "Ġmax",
        "n"
      ],
      [
        "Ġse",
        "ries"
      ],
      [
        "Ġtri",
        "angle"
      ],
      [
        "so",
        "l"
      ],
      [
        "s",
        "wap"
      ],
      [
        "Ġdec",
        "imal"
      ],
      [
        "2",
        "4"
      ],
      [
        "9",
        "8"
      ],
      [
        "for",
        "each"
      ],
      [
        "peat",
        "ed"
      ],
      [
        "Ġl",
        "oc"
      ],
      [
        "ĠR",
        "ight"
      ],
      [
        "Ġl",
        "in"
      ],
      [
        "sonant",
        "s"
      ],
      [
        "Ġcount",
        "Min"
      ],
      [
        "ĠfindM",
        "issing"
      ],
      [
        "D",
        "ivisor"
      ],
      [
        "Ġr",
        "ead"
      ],
      [
        "Subset",
        "s"
      ],
      [
        "Ġread",
        "only"
      ],
      [
        "R",
        "ed"
      ],
      [
        "ĠCont",
        "ains"
      ],
      [
        "reate",
        "st"
      ],
      [
        "A",
        "dd"
      ],
      [
        "Ġc",
        "lear"
      ],
      [
        "Ġfind",
        "Numbers"
      ],
      [
        "Set",
        "s"
      ],
      [
        "ont",
        "h"
      ],
      [
        "Ans",
        "wer"
      ],
      [
        "Ġd",
        "if"
      ],
      [
        "Ġcount",
        "Prime"
      ],
      [
        "s",
        "mallest"
      ],
      [
        "u",
        "d"
      ],
      [
        "Ġt",
        "ext"
      ],
      [
        "Ġe",
        "gg"
      ],
      [
        "erg",
        "ed"
      ],
      [
        "ĠcountSub",
        "string"
      ],
      [
        "pos",
        "sible"
      ],
      [
        "ĠfindL",
        "ongest"
      ],
      [
        "De",
        "let"
      ],
      [
        "fl",
        "ag"
      ],
      [
        "Ġc",
        "ode"
      ],
      [
        "D",
        "ef"
      ],
      [
        "Ġr",
        "b"
      ],
      [
        "ur",
        "e"
      ],
      [
        "ul",
        "o"
      ],
      [
        "res",
        "sion"
      ],
      [
        "Re",
        "ach"
      ],
      [
        "p",
        "ush"
      ],
      [
        "Ġb",
        "y"
      ],
      [
        "S",
        "q"
      ],
      [
        "u",
        "ous"
      ],
      [
        "Ġoc",
        "curr"
      ],
      [
        "An",
        "agram"
      ],
      [
        "Ġtr",
        "aversal"
      ],
      [
        "Ġbuild",
        "Tree"
      ],
      [
        "Dec",
        "imal"
      ],
      [
        "Ġp",
        "o"
      ],
      [
        "Ġma",
        "lloc"
      ],
      [
        "Ġ9",
        "8"
      ],
      [
        "bin",
        "ations"
      ],
      [
        "Tri",
        "angle"
      ],
      [
        "Ġmax",
        "Size"
      ],
      [
        "Ġo",
        "k"
      ],
      [
        "Ġre",
        "ct"
      ],
      [
        "Ġlast",
        "Digit"
      ],
      [
        "ĠE",
        "ntry"
      ],
      [
        "Ġpr",
        "ocess"
      ],
      [
        "Pri",
        "ce"
      ],
      [
        "Ġ12",
        "0"
      ],
      [
        "A",
        "A"
      ],
      [
        "u",
        "ce"
      ],
      [
        "or",
        "s"
      ],
      [
        "Ġre",
        "f"
      ],
      [
        "Ġhigh",
        "est"
      ],
      [
        "ak",
        "en"
      ],
      [
        "ech",
        "o"
      ],
      [
        "Ġmin",
        "Operation"
      ],
      [
        "Ġval",
        "id"
      ],
      [
        "ĠLe",
        "ft"
      ],
      [
        "o",
        "per"
      ],
      [
        "Ġc",
        "entered"
      ],
      [
        "per",
        "m"
      ],
      [
        "EE",
        "KS"
      ],
      [
        "Ġn",
        "p"
      ],
      [
        "ar",
        "se"
      ],
      [
        "Ġmax",
        "x"
      ],
      [
        "0",
        "1"
      ],
      [
        "st",
        "ack"
      ],
      [
        "ar",
        "est"
      ],
      [
        "for",
        "Geeks"
      ],
      [
        "A",
        "fter"
      ],
      [
        "element",
        "s"
      ],
      [
        "D",
        "is"
      ],
      [
        "M",
        "ean"
      ],
      [
        "a",
        "decagonal"
      ],
      [
        "dist",
        "ance"
      ],
      [
        "ule",
        "r"
      ],
      [
        "Ġmax",
        "Ele"
      ],
      [
        "un",
        "ordered"
      ],
      [
        "ĠA",
        "dj"
      ],
      [
        "H",
        "P"
      ],
      [
        "b",
        "a"
      ],
      [
        "l",
        "imit"
      ],
      [
        "Number",
        "Of"
      ],
      [
        "max",
        "imum"
      ],
      [
        "s",
        "ide"
      ],
      [
        "Ġr",
        "anges"
      ],
      [
        "Adj",
        "acent"
      ],
      [
        "5",
        "5"
      ],
      [
        "Ġj",
        "ump"
      ],
      [
        "S",
        "egment"
      ],
      [
        "Ġob",
        "st"
      ],
      [
        "h",
        "eight"
      ],
      [
        "Ġt",
        "up"
      ],
      [
        "vis",
        "ited"
      ],
      [
        "se",
        "g"
      ],
      [
        "Ġll",
        "ist"
      ],
      [
        "uc",
        "k"
      ],
      [
        "point",
        "s"
      ],
      [
        "ind",
        "ow"
      ],
      [
        "mat",
        "rix"
      ],
      [
        "j",
        "ority"
      ],
      [
        "s",
        "ive"
      ],
      [
        "Ġmax",
        "A"
      ],
      [
        "ĠC",
        "OL"
      ],
      [
        "Ġmin",
        "Index"
      ],
      [
        "Re",
        "v"
      ],
      [
        "ĠIn",
        "order"
      ],
      [
        "x",
        "y"
      ],
      [
        "ĠSum",
        "Of"
      ],
      [
        "O",
        "W"
      ],
      [
        "Ġs",
        "c"
      ],
      [
        "at",
        "ing"
      ],
      [
        "Ġd",
        "ays"
      ],
      [
        "Ġb",
        "ound"
      ],
      [
        "Ġcount",
        "Odd"
      ],
      [
        "alindrom",
        "es"
      ],
      [
        "Pal",
        "in"
      ],
      [
        "th",
        "er"
      ],
      [
        "L",
        "argest"
      ],
      [
        "Ġc",
        "l"
      ],
      [
        "Ġpre",
        "process"
      ],
      [
        "Ġex",
        "cl"
      ],
      [
        "10",
        "10"
      ],
      [
        "Comp",
        "ute"
      ],
      [
        "C",
        "ont"
      ],
      [
        "ĠS",
        "orted"
      ],
      [
        "Value",
        "Pair"
      ],
      [
        "ĠKey",
        "ValuePair"
      ],
      [
        "Ġdeg",
        "ree"
      ],
      [
        "Close",
        "st"
      ],
      [
        "LC",
        "M"
      ],
      [
        "Ġprint",
        "K"
      ],
      [
        "H",
        "ex"
      ],
      [
        "b",
        "r"
      ],
      [
        "Ġof",
        "f"
      ],
      [
        "ĠGeeks",
        "forGeeks"
      ],
      [
        "m",
        "ask"
      ],
      [
        "Up",
        "per"
      ],
      [
        "d",
        "fs"
      ],
      [
        "Ġs",
        "in"
      ],
      [
        "al",
        "in"
      ],
      [
        "Sub",
        "Str"
      ],
      [
        "Ġf",
        "i"
      ],
      [
        "Ġpri",
        "vate"
      ],
      [
        "ot",
        "t"
      ],
      [
        "Ġb",
        "l"
      ],
      [
        "oo",
        "p"
      ],
      [
        "ent",
        "ence"
      ],
      [
        "ĠP",
        "os"
      ],
      [
        "Ġfor",
        "mat"
      ],
      [
        "Ġexp",
        "onent"
      ],
      [
        "ĠPre",
        "fix"
      ],
      [
        "D",
        "ig"
      ],
      [
        "ut",
        "ation"
      ],
      [
        "Ġtest",
        "Case"
      ],
      [
        "Ġrot",
        "ate"
      ],
      [
        "Ġd",
        "fa"
      ],
      [
        "ĠS",
        "olution"
      ],
      [
        "Ġa",
        "d"
      ],
      [
        "Ġr",
        "eg"
      ],
      [
        "P",
        "arity"
      ],
      [
        "ac",
        "ont"
      ],
      [
        "Subset",
        "Sum"
      ],
      [
        "p",
        "ower"
      ],
      [
        "Ġm",
        "erged"
      ],
      [
        "Ġcount",
        "Paths"
      ],
      [
        "ce",
        "st"
      ],
      [
        "Ġne",
        "arest"
      ],
      [
        "Ġ4",
        "3"
      ],
      [
        "ĠL",
        "ongest"
      ],
      [
        "res",
        "s"
      ],
      [
        "Re",
        "verse"
      ],
      [
        "Ġinf",
        "o"
      ],
      [
        "D",
        "ays"
      ],
      [
        "Ġcnt",
        "Pairs"
      ],
      [
        "Ġprime",
        "Factors"
      ],
      [
        "Ġcan",
        "Be"
      ],
      [
        "er",
        "val"
      ],
      [
        "ĠQ",
        "ueries"
      ],
      [
        "Ġinsert",
        "Node"
      ],
      [
        "ĠIn",
        "sert"
      ],
      [
        "Ġoc",
        "c"
      ],
      [
        "P",
        "S"
      ],
      [
        "Sum",
        "Util"
      ],
      [
        "Char",
        "acter"
      ],
      [
        "Term",
        "s"
      ],
      [
        "Rem",
        "ove"
      ],
      [
        "Ġentry",
        "Set"
      ],
      [
        "se",
        "arch"
      ],
      [
        "SubArray",
        "Sum"
      ],
      [
        "B",
        "IT"
      ],
      [
        "ab",
        "c"
      ],
      [
        "ph",
        "a"
      ],
      [
        "1",
        "3"
      ],
      [
        "u",
        "ns"
      ],
      [
        "h",
        "ift"
      ],
      [
        "de",
        "g"
      ],
      [
        "For",
        "m"
      ],
      [
        "S",
        "uffix"
      ],
      [
        "a",
        "ke"
      ],
      [
        "w",
        "ith"
      ],
      [
        "h",
        "ash"
      ],
      [
        "Ġe",
        "r"
      ],
      [
        "Ġmax",
        "B"
      ],
      [
        "ang",
        "ement"
      ],
      [
        "Ġnum",
        "erator"
      ],
      [
        "Ġadj",
        "acent"
      ],
      [
        "Ġc",
        "enter"
      ],
      [
        "Ġh",
        "elper"
      ],
      [
        "Ġis",
        "C"
      ],
      [
        "al",
        "ance"
      ],
      [
        "ĠsumOf",
        "Series"
      ],
      [
        "Ġrec",
        "ord"
      ],
      [
        "r",
        "n"
      ],
      [
        "in",
        "ation"
      ],
      [
        "Ġco",
        "ins"
      ],
      [
        "Ġden",
        "ominator"
      ],
      [
        "Ġmax",
        "E"
      ],
      [
        "ĠIn",
        "put"
      ],
      [
        "v",
        "owel"
      ],
      [
        "Ġways",
        "To"
      ],
      [
        "Ġt",
        "urn"
      ],
      [
        "Ġe",
        "d"
      ],
      [
        "re",
        "en"
      ],
      [
        "ĠCount",
        "Ways"
      ],
      [
        "Comp",
        "osite"
      ],
      [
        "Interse",
        "ction"
      ],
      [
        "Ġobst",
        "Pos"
      ],
      [
        "M",
        "issing"
      ],
      [
        "Ġas",
        "List"
      ],
      [
        "n",
        "eg"
      ],
      [
        "Ġmax",
        "Element"
      ],
      [
        "Prime",
        "Factors"
      ],
      [
        "B",
        "in"
      ],
      [
        "Ġx",
        "x"
      ],
      [
        "ĠC",
        "alculate"
      ],
      [
        "Ġsum",
        "Odd"
      ],
      [
        "Ġmin",
        "m"
      ],
      [
        "ĠInt",
        "erval"
      ],
      [
        "g",
        "r"
      ],
      [
        "et",
        "ri"
      ],
      [
        "Ġ100",
        "1"
      ],
      [
        "Ġmax",
        "val"
      ],
      [
        "is",
        "h"
      ],
      [
        "ex",
        "p"
      ],
      [
        "Part",
        "ition"
      ],
      [
        "Ġper",
        "form"
      ],
      [
        "Ġ9",
        "9"
      ],
      [
        "Ġer",
        "ase"
      ],
      [
        "Ġis",
        "A"
      ],
      [
        "000",
        "1"
      ],
      [
        "Ġr",
        "y"
      ],
      [
        "ĠS",
        "mallest"
      ],
      [
        "Ġfor",
        "Each"
      ],
      [
        "ĠC",
        "eil"
      ],
      [
        "ac",
        "ity"
      ],
      [
        "Sub",
        "Seq"
      ],
      [
        "Ġsecond",
        "Max"
      ],
      [
        "Ġneg",
        "ative"
      ],
      [
        "Ġprint",
        "Sum"
      ],
      [
        "tr",
        "act"
      ],
      [
        "B",
        "ST"
      ],
      [
        "I",
        "ns"
      ],
      [
        "Ġp",
        "a"
      ],
      [
        "ĠR",
        "OW"
      ],
      [
        "O",
        "ps"
      ],
      [
        "ĠN",
        "th"
      ],
      [
        "irc",
        "le"
      ],
      [
        "Ste",
        "p"
      ],
      [
        "Ġprint",
        "P"
      ],
      [
        "ĠP",
        "HP"
      ],
      [
        "Ġeven",
        "Sum"
      ],
      [
        "Ġbit",
[...]
